{
  "!": 0,
  "\"": 1,
  "\")": 14766,
  "\").": 25541,
  "\",": 9970,
  "\".": 9569,
  "\":": 27813,
  "#": 2,
  "$": 3,
  "%": 4,
  "%)": 956,
  "%),": 2133,
  "%).": 2212,
  "%);": 11336,
  "%,": 1318,
  "%-": 7852,
  "%.": 2233,
  "%/": 18097,
  "%:": 27727,
  "%;": 3974,
  "%]": 16778,
  "&": 5,
  "'": 6,
  "')": 14054,
  "',": 6419,
  "'-": 3207,
  "'.": 10781,
  "':": 27195,
  "'s": 951,
  "'t": 15660,
  "(": 7,
  "((": 24538,
  "(+": 27809,
  "(+)": 3978,
  "(+),": 19127,
  "(+)-": 9811,
  "(+)/": 22430,
  "(-": 1650,
  "(-)": 8280,
  "(-),": 27403,
  "(-)-": 21284,
  "(-/-)": 13329,
  "(Â®": 17935,
  "(Â®)": 21493,
  ")": 8,
  ")%": 21991,
  ")%,": 28540,
  ")(": 3680,
  ")(-": 23892,
  ")(-)": 23818,
  "))": 3141,
  "))(": 12444,
  ")),": 8946,
  ")).": 8902,
  ")+": 25870,
  "),": 482,
  ")-": 1357,
  ")-(": 27498,
  ")--": 18527,
  ").": 457,
  ").(": 26239,
  ")/": 5135,
  "):": 5861,
  ");": 2899,
  ")=": 10367,
  ")]": 5201,
  ")](": 16550,
  ")],": 15613,
  ")].": 7309,
  ")}": 27823,
  "*": 9,
  "*)": 23159,
  "+": 10,
  "+)": 2442,
  "+),": 10497,
  "+)-": 5690,
  "+).": 17252,
  "+)](": 23694,
  "++": 18444,
  "+,": 6967,
  "+-": 7832,
  "+.": 12577,
  "+/": 9163,
  "+/-": 2860,
  "+]": 9756,
  ",": 11,
  ",\"": 9587,
  "-": 12,
  "-(": 3339,
  "-)": 10554,
  "-),": 28809,
  "-,": 4800,
  "--": 2241,
  "----": 20541,
  "-->": 10523,
  "-.": 20758,
  "-/": 16441,
  "-/-": 14139,
  "-[": 7615,
  "-[(": 20376,
  ".": 13,
  ".\"": 10190,
  ".(": 7812,
  ".)": 4633,
  ".),": 13916,
  ".).": 11816,
  ".,": 2175,
  ".-": 17551,
  "..": 10905,
  "...": 20351,
  "./": 28036,
  ".;": 22583,
  "/": 14,
  "/(": 18370,
  "/+": 26343,
  "/-": 939,
  "/-)": 11876,
  "//": 15543,
  "/=": 17476,
  "0": 15,
  "00": 480,
  "000": 2184,
  "00001": 23715,
  "0001": 3903,
  "0002": 20973,
  "0003": 25265,
  "0004": 27791,
  "0005": 18392,
  "001": 1589,
  "002": 6637,
  "003": 8329,
  "004": 9266,
  "005": 6969,
  "006": 10714,
  "007": 11427,
  "008": 11659,
  "009": 12917,
  "01": 895,
  "010": 18672,
  "011": 16436,
  "012": 15570,
  "013": 16177,
  "014": 16292,
  "015": 15104,
  "016": 16344,
  "017": 17059,
  "018": 16970,
  "019": 18489,
  "02": 3777,
  "020": 22139,
  "021": 20653,
  "022": 20059,
  "023": 19436,
  "024": 19229,
  "025": 13658,
  "026": 19919,
  "027": 19771,
  "028": 19952,
  "029": 21554,
  "03": 4302,
  "030": 24164,
  "031": 23192,
  "032": 22573,
  "033": 22924,
  "034": 22215,
  "035": 20482,
  "036": 21798,
  "037": 22083,
  "038": 22329,
  "039": 23271,
  "04": 3507,
  "040": 26804,
  "041": 25344,
  "042": 24929,
  "043": 24753,
  "044": 25840,
  "045": 21994,
  "046": 23081,
  "047": 23839,
  "048": 23422,
  "049": 25097,
  "05": 1255,
  "059": 21514,
  "06": 6205,
  "07": 6749,
  "08": 6782,
  "09": 7115,
  "1": 16,
  "10": 1121,
  "100": 2873,
  "1000": 12500,
  "101": 12554,
  "102": 17385,
  "103": 17037,
  "104": 17414,
  "105": 15107,
  "106": 18031,
  "107": 19645,
  "108": 18976,
  "109": 18552,
  "11": 1685,
  "110": 12810,
  "111": 12680,
  "112": 20800,
  "113": 21502,
  "114": 20670,
  "115": 19580,
  "116": 16912,
  "117": 19790,
  "118": 22126,
  "119": 22412,
  "12": 1354,
  "120": 9778,
  "121": 21662,
  "1210": 28449,
  "122": 19432,
  "123": 13932,
  "124": 20231,
  "125": 7967,
  "126": 18617,
  "127": 19617,
  "128": 21855,
  "129": 21594,
  "13": 1830,
  "130": 14573,
  "131": 16147,
  "132": 20045,
  "133": 15173,
  "134": 22914,
  "135": 20476,
  "136": 26160,
  "137": 19272,
  "138": 22549,
  "139": 22585,
  "14": 1895,
  "140": 15573,
  "141": 25365,
  "142": 23943,
  "143": 23625,
  "144": 23843,
  "145": 16877,
  "146": 19627,
  "147": 23436,
  "148": 23908,
  "149": 26198,
  "15": 1858,
  "150": 11273,
  "151": 25497,
  "152": 25861,
  "153": 22698,
  "154": 23120,
  "155": 20003,
  "156": 26440,
  "157": 14802,
  "158": 24744,
  "159": 27496,
  "16": 2068,
  "160": 16578,
  "163": 23989,
  "165": 22351,
  "166": 26639,
  "167": 28698,
  "168": 28202,
  "169": 28673,
  "17": 2213,
  "170": 20727,
  "172": 26408,
  "174": 22201,
  "175": 24415,
  "177": 24998,
  "178": 26026,
  "18": 1948,
  "180": 15324,
  "181": 24344,
  "183": 28416,
  "184": 28413,
  "185": 25532,
  "187": 16106,
  "188": 25782,
  "19": 1838,
  "190": 23117,
  "192": 25589,
  "195": 24109,
  "196": 27266,
  "1980": 27657,
  "1989": 28723,
  "199": 24891,
  "1990": 23079,
  "1991": 27759,
  "1992": 26727,
  "1993": 26711,
  "1994": 24448,
  "1995": 24236,
  "1996": 24737,
  "1997": 24198,
  "1998": 23493,
  "1999": 22686,
  "2": 17,
  "20": 1857,
  "200": 4156,
  "2000": 14146,
  "2001": 21741,
  "2002": 20603,
  "2003": 22052,
  "2004": 20486,
  "2005": 19846,
  "2006": 20295,
  "2007": 21143,
  "2008": 20471,
  "2009": 19723,
  "201": 5670,
  "2010": 18503,
  "2011": 21556,
  "2012": 20258,
  "2013": 21692,
  "2014": 21663,
  "2015": 23053,
  "2016": 24678,
  "202": 26293,
  "203": 24515,
  "204": 26537,
  "205": 24106,
  "206": 27288,
  "207": 27718,
  "209": 26612,
  "21": 2813,
  "210": 17930,
  "212": 25993,
  "22": 2707,
  "220": 22229,
  "222": 26453,
  "223": 25551,
  "225": 26674,
  "226": 26081,
  "23": 2599,
  "230": 26694,
  "231": 17488,
  "23187": 21080,
  "235": 27040,
  "238": 27969,
  "24": 2604,
  "240": 22470,
  "25": 1931,
  "250": 13342,
  "251": 25647,
  "26": 3088,
  "260": 28602,
  "264": 22508,
  "27": 2914,
  "276": 28667,
  "28": 3089,
  "280": 27423,
  "29": 3213,
  "293": 19125,
  "294": 23319,
  "3": 18,
  "30": 2345,
  "300": 9067,
  "308": 25777,
  "31": 3870,
  "311": 25742,
  "32": 3671,
  "320": 26119,
  "33": 3504,
  "34": 3071,
  "344": 19226,
  "35": 3087,
  "350": 23735,
  "36": 3271,
  "37": 3646,
  "375": 25238,
  "38": 3123,
  "388": 26306,
  "39": 4072,
  "390": 25223,
  "4": 19,
  "40": 2484,
  "400": 11758,
  "41": 5030,
  "42": 4328,
  "43": 4529,
  "44": 3764,
  "45": 3352,
  "450": 6115,
  "46": 4742,
  "47": 4456,
  "48": 4034,
  "480": 28261,
  "486": 28660,
  "49": 4360,
  "5": 20,
  "50": 1299,
  "500": 9323,
  "506": 20245,
  "51": 5890,
  "52": 5686,
  "53": 2825,
  "54": 5684,
  "549": 14193,
  "55": 4559,
  "56": 4667,
  "562": 15708,
  "57": 4050,
  "58": 5572,
  "59": 6039,
  "6": 21,
  "60": 2661,
  "600": 12826,
  "61": 5895,
  "62": 5473,
  "63": 5036,
  "64": 4919,
  "65": 3822,
  "66": 4476,
  "67": 3915,
  "677": 28828,
  "68": 4549,
  "69": 5045,
  "7": 22,
  "70": 2994,
  "700": 20465,
  "71": 5425,
  "72": 5099,
  "73": 4902,
  "74": 5351,
  "75": 3155,
  "76": 5186,
  "77": 4729,
  "78": 4561,
  "79": 4893,
  "8": 23,
  "80": 2746,
  "800": 17243,
  "801": 19364,
  "81": 6141,
  "82": 5813,
  "83": 5825,
  "84": 5849,
  "85": 4797,
  "86": 5390,
  "87": 5783,
  "88": 4993,
  "89": 5483,
  "9": 24,
  "90": 3159,
  "900": 25466,
  "91": 5933,
  "92": 5688,
  "93": 5694,
  "937": 20369,
  "94": 5677,
  "95": 1952,
  "96": 5287,
  "97": 5578,
  "98": 4490,
  "99": 3453,
  "999": 26835,
  ":": 25,
  "://": 16311,
  ";": 26,
  "<": 27,
  "<.": 10828,
  "</": 24364,
  "=": 28,
  "=-": 14001,
  "=.": 10466,
  ">": 29,
  "?": 30,
  "?].": 18757,
  "@": 31,
  "A": 32,
  "AA": 3854,
  "AAA": 24822,
  "AART": 18158,
  "AB": 2455,
  "ABA": 5942,
  "ABC": 23084,
  "ABL": 23210,
  "ABP": 14567,
  "ABSTRACT": 7384,
  "AC": 5330,
  "ACC": 25253,
  "ACE": 18401,
  "ACL": 28180,
  "ACS": 21693,
  "ACT": 17410,
  "ACTH": 28112,
  "ACh": 12633,
  "AChE": 28404,
  "AChR": 23420,
  "AD": 2081,
  "ADC": 27853,
  "ADH": 27862,
  "ADHD": 24126,
  "ADL": 27476,
  "ADP": 14697,
  "ADS": 15675,
  "AE": 14931,
  "AF": 5945,
  "AFM": 25685,
  "AG": 5954,
  "AH": 22871,
  "AI": 7303,
  "AIDS": 12824,
  "AK": 9781,
  "AKT": 22964,
  "AL": 3162,
  "ALA": 28489,
  "ALL": 16830,
  "ALP": 22316,
  "ALS": 20359,
  "ALT": 20941,
  "ALY": 18585,
  "AM": 12515,
  "AMI": 23558,
  "AML": 18662,
  "AMP": 4907,
  "AN": 11353,
  "ANOVA": 28329,
  "ANP": 23588,
  "AO": 26875,
  "AOR": 24568,
  "AP": 1940,
  "APC": 25017,
  "APP": 17256,
  "APS": 26688,
  "AQ": 28394,
  "AR": 4174,
  "ARC": 27691,
  "ARF": 27897,
  "ART": 20952,
  "AS": 2142,
  "ASA": 22279,
  "ASD": 25212,
  "ASE": 13423,
  "ASH": 17062,
  "ASP": 26067,
  "AST": 12580,
  "AT": 2444,
  "ATA": 14184,
  "ATP": 5793,
  "ATPase": 8881,
  "ATS": 21365,
  "AUC": 12933,
  "AV": 13572,
  "AX": 23712,
  "AZ": 28784,
  "Ab": 6040,
  "Abnormal": 26339,
  "Abs": 17078,
  "Ac": 4005,
  "Acc": 13023,
  "Activation": 20650,
  "Acute": 10338,
  "Ad": 6076,
  "Aden": 22039,
  "Adult": 26866,
  "Adv": 18543,
  "Advances": 26157,
  "After": 19380,
  "Ag": 6413,
  "Age": 18257,
  "Air": 28317,
  "Akt": 15020,
  "Al": 3346,
  "Ala": 13448,
  "All": 15405,
  "Although": 7901,
  "Am": 7085,
  "Americ": 13430,
  "American": 15151,
  "Among": 25341,
  "An": 2626,
  "Anal": 8939,
  "Analysis": 10390,
  "Ang": 21751,
  "Angi": 19591,
  "Anti": 8854,
  "Ap": 8747,
  "Application": 17670,
  "Appro": 26163,
  "Ar": 6656,
  "Are": 24013,
  "Arg": 11594,
  "As": 3170,
  "Asn": 27790,
  "Asp": 15333,
  "Ass": 10117,
  "Assessing": 23756,
  "Assessment": 13928,
  "Association": 13300,
  "At": 10928,
  "Au": 13278,
  "Aut": 12220,
  "Auto": 27544,
  "B": 33,
  "BA": 4847,
  "BAL": 22636,
  "BB": 7945,
  "BBB": 22422,
  "BC": 4523,
  "BD": 4589,
  "BDNF": 27161,
  "BE": 12618,
  "BF": 9002,
  "BG": 9442,
  "BH": 15776,
  "BI": 5448,
  "BK": 26150,
  "BL": 5277,
  "BM": 5547,
  "BMCs": 18726,
  "BMD": 17063,
  "BMI": 9978,
  "BMP": 17645,
  "BMT": 28695,
  "BN": 17924,
  "BNP": 15237,
  "BO": 19623,
  "BP": 2706,
  "BPA": 27949,
  "BPs": 24070,
  "BR": 8740,
  "BS": 4383,
  "BSA": 17428,
  "BT": 8231,
  "BV": 4398,
  "BW": 17917,
  "Ba": 23918,
  "Background": 23697,
  "Bacterial": 25074,
  "Bank": 23446,
  "Barr": 14447,
  "Based": 12542,
  "Be": 13071,
  "Bec": 20619,
  "Because": 21976,
  "Behavi": 23711,
  "Bet": 21651,
  "Beta": 26076,
  "Between": 26736,
  "Bi": 8275,
  "Bilateral": 27596,
  "Binding": 27956,
  "Bio": 18388,
  "Biochemical": 28035,
  "Biological": 25354,
  "Biom": 24598,
  "Bl": 11010,
  "Blood": 18829,
  "Bo": 28721,
  "Body": 27877,
  "Bone": 18540,
  "Both": 24388,
  "Br": 9166,
  "Brain": 19831,
  "Breast": 22132,
  "Bs": 5891,
  "BsAg": 13085,
  "Bu": 14610,
  "By": 20204,
  "C": 34,
  "CA": 1550,
  "CAA": 28116,
  "CABG": 24782,
  "CAD": 14587,
  "CAL": 26452,
  "CAM": 7011,
  "CAP": 13615,
  "CAR": 20769,
  "CAS": 24141,
  "CAT": 5883,
  "CATED": 7525,
  "CAs": 23326,
  "CB": 6976,
  "CBF": 17508,
  "CC": 1991,
  "CCK": 27054,
  "CCP": 26784,
  "CD": 2170,
  "CDD": 14432,
  "CDs": 26116,
  "CE": 3333,
  "CEA": 21512,
  "CF": 3990,
  "CFA": 26825,
  "CFU": 24440,
  "CG": 3328,
  "CH": 3279,
  "CHD": 19548,
  "CHE": 23302,
  "CHF": 25673,
  "CHO": 18795,
  "CI": 2316,
  "CIS": 18616,
  "CIs": 23936,
  "CK": 9909,
  "CKD": 22829,
  "CL": 3145,
  "CLL": 23840,
  "CLUS": 24020,
  "CM": 3359,
  "CMC": 28618,
  "CML": 26855,
  "CMV": 12495,
  "CN": 5639,
  "CNS": 15520,
  "CNT": 20802,
  "CNTs": 20645,
  "CO": 3073,
  "COD": 26997,
  "CON": 26281,
  "COPD": 19102,
  "COX": 19619,
  "CP": 2659,
  "CPP": 25865,
  "CPR": 27574,
  "CPT": 25935,
  "CPs": 16247,
  "CR": 1527,
  "CRC": 19872,
  "CRF": 23179,
  "CRP": 11320,
  "CRT": 18414,
  "CS": 2417,
  "CSF": 6547,
  "CT": 1495,
  "CTA": 22502,
  "CTs": 10715,
  "CV": 3255,
  "CVA": 21167,
  "CVD": 18783,
  "CX": 20549,
  "CY": 27379,
  "CYP": 16996,
  "Ca": 4306,
  "CaP": 22231,
  "Cal": 21521,
  "Calc": 18061,
  "Calcium": 24375,
  "Can": 16841,
  "Cancer": 20223,
  "Car": 22097,
  "Carb": 25420,
  "Carbon": 28714,
  "Cardi": 12198,
  "Cardiac": 19099,
  "Cardiovascular": 22960,
  "Care": 27101,
  "Cas": 23304,
  "Case": 23008,
  "Cat": 25189,
  "Catal": 25228,
  "Cd": 13587,
  "Ce": 22546,
  "Cell": 13844,
  "Cellular": 25719,
  "Central": 23510,
  "Cer": 22556,
  "Cerebral": 24042,
  "Ch": 2631,
  "Changes": 12024,
  "Character": 9035,
  "Characteristics": 22586,
  "Characterization": 11200,
  "Chem": 13853,
  "Chemical": 21937,
  "Child": 16517,
  "Children": 25312,
  "Chlor": 25866,
  "Chrom": 22075,
  "Chronic": 11559,
  "Ci": 22716,
  "Circ": 20901,
  "Cl": 2374,
  "Class": 23534,
  "Clinical": 7277,
  "Cloning": 23798,
  "Co": 5298,
  "CoA": 10525,
  "Cognitive": 24462,
  "Col": 15499,
  "Com": 4228,
  "Combin": 15235,
  "Combined": 21785,
  "Commun": 24335,
  "Comp": 11582,
  "Comparative": 13108,
  "Comparison": 8719,
  "Complex": 28003,
  "Computer": 24656,
  "Con": 5575,
  "Congenital": 20243,
  "Cons": 16078,
  "Cont": 27455,
  "Contin": 22151,
  "Continuous": 26222,
  "Control": 18963,
  "Cor": 9971,
  "Coronary": 25749,
  "Correlation": 21404,
  "Cost": 26467,
  "Cp": 19967,
  "Cr": 8584,
  "Cross": 25146,
  "Cs": 1840,
  "Cu": 9327,
  "Current": 13327,
  "Cy": 20849,
  "Cycl": 21140,
  "Cys": 14244,
  "Cyt": 12125,
  "D": 35,
  "DA": 2684,
  "DAC": 13008,
  "DB": 26603,
  "DBP": 27190,
  "DC": 9217,
  "DCS": 25495,
  "DCs": 20367,
  "DD": 11959,
  "DE": 9597,
  "DES": 28377,
  "DF": 11836,
  "DFT": 19779,
  "DG": 7001,
  "DH": 6934,
  "DHA": 27087,
  "DI": 7484,
  "DL": 2584,
  "DLINE": 12401,
  "DM": 4410,
  "DMA": 23367,
  "DN": 15587,
  "DNA": 2902,
  "DO": 11297,
  "DOPA": 22664,
  "DOX": 28209,
  "DP": 5454,
  "DPP": 28236,
  "DQ": 18119,
  "DR": 4674,
  "DRB": 23977,
  "DS": 2260,
  "DSC": 27978,
  "DSM": 27860,
  "DSS": 22096,
  "DT": 7658,
  "DTPA": 19731,
  "DV": 23516,
  "Da": 4567,
  "Data": 22322,
  "Dawley": 11325,
  "De": 6030,
  "Dec": 14249,
  "Def": 19561,
  "Del": 19586,
  "Delta": 15273,
  "Dem": 27737,
  "Depression": 28562,
  "Der": 24227,
  "Des": 8901,
  "Design": 18986,
  "Despite": 13191,
  "Detection": 14020,
  "Determination": 14104,
  "Development": 10404,
  "Developmental": 27688,
  "Di": 6139,
  "Diabetes": 26273,
  "Diagn": 13171,
  "Diagnosis": 20260,
  "Diagnostic": 20317,
  "Dietary": 22600,
  "Diff": 21676,
  "Differen": 10195,
  "Differences": 24756,
  "Different": 22666,
  "Differential": 14559,
  "Dig": 27816,
  "Diptera": 25765,
  "Direct": 17960,
  "Dis": 14973,
  "Disc": 24738,
  "Diss": 25985,
  "Distribution": 22130,
  "Do": 19534,
  "Does": 17261,
  "Doppler": 28381,
  "Dr": 28163,
  "Drug": 18954,
  "Ds": 8085,
  "During": 12777,
  "Dynamic": 18568,
  "Dys": 26132,
  "E": 36,
  "EA": 4783,
  "EAE": 19361,
  "EB": 9835,
  "EBP": 15406,
  "EBV": 23728,
  "EC": 4316,
  "ECD": 25634,
  "ECG": 20919,
  "ECM": 18760,
  "ECT": 13699,
  "ECs": 13073,
  "ED": 3175,
  "EDTA": 23522,
  "EDs": 15617,
  "EE": 14212,
  "EEG": 16258,
  "EF": 5906,
  "EG": 3454,
  "EGF": 4392,
  "EGFP": 27908,
  "EGFR": 18877,
  "EH": 27134,
  "EI": 25806,
  "EK": 20590,
  "EL": 7197,
  "ELISA": 12692,
  "EM": 3261,
  "EMG": 19146,
  "EMI": 15590,
  "EN": 7057,
  "ENT": 25529,
  "EO": 26100,
  "EP": 5011,
  "EPI": 27407,
  "EPO": 21224,
  "EPS": 25629,
  "ER": 2629,
  "ERD": 17352,
  "ERG": 23263,
  "ERK": 13418,
  "ERS": 19648,
  "ERT": 16915,
  "ES": 2804,
  "ESI": 15103,
  "ESS": 18037,
  "ET": 2617,
  "ETE": 25862,
  "ETs": 20183,
  "EV": 6528,
  "EX": 20405,
  "Early": 12954,
  "Ec": 26992,
  "Effec": 3055,
  "Effect": 4984,
  "Effectiveness": 24233,
  "Effects": 5151,
  "Efficacy": 15476,
  "Efficient": 26864,
  "Eight": 28363,
  "El": 22558,
  "Ele": 19224,
  "Elec": 10076,
  "Electro": 18359,
  "Electron": 26838,
  "Elevated": 26907,
  "Em": 12918,
  "Emerg": 21507,
  "En": 4881,
  "End": 9016,
  "Endoscopic": 23149,
  "Enhanced": 19492,
  "Environ": 26707,
  "Environmental": 28832,
  "Ep": 21163,
  "Epid": 27308,
  "Epidemi": 17344,
  "Epidemiology": 27252,
  "Eq": 23106,
  "Er": 19770,
  "Es": 6948,
  "Est": 18884,
  "Establ": 28717,
  "Estim": 21335,
  "Et": 18730,
  "Eth": 23954,
  "Euro": 25161,
  "Evaluation": 8383,
  "Evidence": 13867,
  "Evolution": 25148,
  "Ex": 3909,
  "Exper": 9832,
  "Experiment": 24144,
  "Experimental": 15637,
  "Experiments": 28725,
  "Expl": 23958,
  "Exposure": 25654,
  "Expression": 11250,
  "F": 37,
  "FA": 4363,
  "FAs": 24792,
  "FC": 15298,
  "FD": 23784,
  "FDG": 13274,
  "FE": 14529,
  "FEV": 24775,
  "FF": 14154,
  "FGF": 11701,
  "FH": 20550,
  "FI": 9246,
  "FISH": 21550,
  "FL": 18514,
  "FM": 21394,
  "FN": 3665,
  "FNA": 25140,
  "FP": 11155,
  "FR": 11658,
  "FS": 5364,
  "FSH": 19970,
  "FT": 4868,
  "FTIR": 23293,
  "FU": 9904,
  "FV": 12889,
  "Factors": 17070,
  "Familial": 28746,
  "Fas": 21544,
  "Fc": 19800,
  "Fe": 6499,
  "Fer": 28494,
  "Fetal": 28718,
  "Fib": 21777,
  "Fif": 25622,
  "First": 20361,
  "Five": 21960,
  "Fl": 20582,
  "Flow": 27887,
  "Fluor": 25393,
  "Follow": 24411,
  "Following": 28713,
  "For": 13362,
  "Form": 13523,
  "Formula": 20197,
  "Fos": 22423,
  "Four": 14880,
  "Fr": 22762,
  "Free": 21805,
  "From": 15825,
  "Fs": 9174,
  "Functional": 13825,
  "Fv": 23232,
  "G": 38,
  "GA": 5081,
  "GABA": 18582,
  "GAP": 23132,
  "GB": 14977,
  "GC": 7902,
  "GD": 9908,
  "GE": 3964,
  "GF": 1392,
  "GFP": 16243,
  "GFR": 9554,
  "GG": 13431,
  "GH": 9362,
  "GI": 12009,
  "GL": 13383,
  "GM": 10737,
  "GMP": 11332,
  "GN": 16088,
  "GO": 10999,
  "GP": 10063,
  "GPI": 26684,
  "GR": 8852,
  "GS": 7336,
  "GSH": 15756,
  "GST": 20207,
  "GT": 6482,
  "GTP": 20778,
  "GTT": 21466,
  "GVHD": 22832,
  "Ga": 14007,
  "Gal": 11942,
  "Gastro": 25128,
  "Gd": 26303,
  "Ge": 17268,
  "Gen": 10608,
  "Gene": 17109,
  "General": 26311,
  "Genetic": 13024,
  "Gl": 7544,
  "Glc": 14540,
  "GlcNAc": 20086,
  "Gln": 22062,
  "Glu": 10899,
  "Gluc": 24071,
  "Glut": 23995,
  "Gly": 12199,
  "Glyc": 23080,
  "GnRH": 22679,
  "Gr": 28502,
  "Gra": 24570,
  "Group": 10826,
  "Growth": 20022,
  "Gs": 11728,
  "Gu": 16617,
  "Gy": 13906,
  "H": 39,
  "HA": 3988,
  "HB": 11344,
  "HBV": 18537,
  "HBs": 27628,
  "HC": 4610,
  "HCC": 14584,
  "HCO": 22777,
  "HCV": 12182,
  "HCl": 22741,
  "HD": 3787,
  "HDL": 13369,
  "HE": 14694,
  "HER": 20313,
  "HF": 6657,
  "HFR": 18357,
  "HG": 25434,
  "HI": 8687,
  "HIF": 26022,
  "HIV": 9288,
  "HL": 9159,
  "HLA": 15359,
  "HM": 20149,
  "HMG": 28473,
  "HN": 24743,
  "HO": 6330,
  "HODS": 26720,
  "HP": 5318,
  "HPA": 27912,
  "HPLC": 12110,
  "HPV": 15828,
  "HR": 3250,
  "HRH": 14367,
  "HRP": 24767,
  "HS": 5216,
  "HSA": 25445,
  "HSCT": 24056,
  "HSD": 18576,
  "HSP": 20332,
  "HSV": 20812,
  "HT": 3719,
  "HV": 10624,
  "Ha": 16863,
  "Hb": 11707,
  "HbA": 27534,
  "Hcy": 26337,
  "He": 8122,
  "Health": 13202,
  "Heart": 25984,
  "Hem": 14653,
  "Hep": 11228,
  "Hepat": 25768,
  "Hepatic": 26759,
  "Hepatitis": 23239,
  "Her": 23807,
  "Here": 21803,
  "Heter": 21290,
  "Hg": 5500,
  "High": 8119,
  "Highly": 24430,
  "His": 15092,
  "Hispanic": 24670,
  "Hist": 16694,
  "Hodgkin": 13858,
  "Hom": 28434,
  "Hospital": 28689,
  "How": 15231,
  "Hs": 14298,
  "Hu": 20362,
  "Human": 9391,
  "Hy": 7877,
  "Hydro": 13882,
  "Hydroxy": 27291,
  "Hyp": 14004,
  "Hyper": 13605,
  "Hz": 8000,
  "I": 40,
  "IA": 6276,
  "IB": 23786,
  "IBD": 22917,
  "IC": 4111,
  "ICA": 21214,
  "ICAM": 21851,
  "ICC": 18493,
  "ICD": 21892,
  "ICP": 21072,
  "ICS": 24563,
  "ICU": 11615,
  "ID": 4963,
  "IDDM": 18684,
  "IE": 21145,
  "IF": 5189,
  "IFN": 9486,
  "IG": 17720,
  "IGF": 11943,
  "II": 1165,
  "III": 3667,
  "IIIa": 19200,
  "IIa": 21250,
  "IIb": 24120,
  "IK": 15728,
  "IL": 3569,
  "ILs": 26243,
  "IM": 11525,
  "IMT": 27644,
  "IN": 4949,
  "INE": 11382,
  "INF": 18960,
  "INFO": 20678,
  "ING": 21380,
  "INK": 23775,
  "IO": 14980,
  "ION": 15465,
  "IONS": 23916,
  "IOP": 26954,
  "IP": 4096,
  "IQ": 28846,
  "IQR": 14624,
  "IR": 3907,
  "IS": 5049,
  "IT": 4775,
  "ITC": 16439,
  "ITS": 24324,
  "IU": 16600,
  "IV": 1772,
  "IVE": 23873,
  "IX": 25348,
  "Identification": 10539,
  "Ig": 7146,
  "IgA": 23401,
  "IgE": 23071,
  "IgG": 14416,
  "IgM": 25994,
  "Ile": 23733,
  "Im": 4404,
  "Imaging": 26613,
  "Immun": 9405,
  "Immune": 28288,
  "Immunohist": 25593,
  "Immunohistochemical": 28167,
  "Impact": 13207,
  "Impro": 13743,
  "Improved": 23749,
  "Improving": 25024,
  "In": 1244,
  "Inc": 8738,
  "Incidence": 22816,
  "Increased": 14311,
  "Increasing": 26182,
  "Ind": 26149,
  "Individual": 26847,
  "Induced": 22177,
  "Induction": 20278,
  "Inf": 11184,
  "Inflammatory": 28653,
  "Influence": 10883,
  "Inhibit": 25196,
  "Inhibition": 14962,
  "Ins": 12585,
  "Insulin": 20552,
  "Int": 19052,
  "Integr": 21706,
  "Inter": 8008,
  "Interaction": 21028,
  "Interleukin": 22536,
  "Intern": 25462,
  "Intr": 16071,
  "Intra": 14145,
  "Intrac": 25774,
  "Investig": 16394,
  "Investigation": 21965,
  "Involvement": 26634,
  "Ion": 28887,
  "Ir": 20648,
  "Is": 4912,
  "Isolated": 28545,
  "Isolation": 16752,
  "It": 7952,
  "J": 41,
  "JD": 23394,
  "JNK": 23883,
  "Jan": 28741,
  "Jun": 17629,
  "K": 42,
  "KA": 11595,
  "KB": 28253,
  "KD": 21122,
  "KI": 24586,
  "KL": 27330,
  "KO": 17347,
  "KS": 21230,
  "KT": 15781,
  "KY": 14650,
  "Kd": 25130,
  "Ki": 21136,
  "Km": 27404,
  "Ks": 21920,
  "L": 43,
  "LA": 2560,
  "LAS": 28038,
  "LB": 12379,
  "LBW": 25036,
  "LC": 2679,
  "LD": 4590,
  "LDH": 15772,
  "LDI": 24881,
  "LDL": 8344,
  "LE": 5233,
  "LF": 11929,
  "LG": 24824,
  "LH": 12475,
  "LI": 3350,
  "LIF": 23930,
  "LIP": 27442,
  "LISA": 5339,
  "LL": 6866,
  "LM": 12525,
  "LN": 15339,
  "LO": 13614,
  "LOD": 27394,
  "LP": 4700,
  "LPS": 12697,
  "LR": 4982,
  "LS": 5207,
  "LT": 4806,
  "LU": 28075,
  "LV": 6036,
  "LY": 27920,
  "LYP": 22227,
  "La": 10283,
  "Lack": 28330,
  "Laparoscopic": 20920,
  "Large": 24945,
  "Late": 28009,
  "Le": 10349,
  "Left": 26153,
  "Leu": 12549,
  "Li": 13427,
  "Life": 27744,
  "Light": 25965,
  "Lim": 26988,
  "Lip": 14990,
  "Little": 25003,
  "Liver": 24650,
  "Local": 25018,
  "Long": 10019,
  "Low": 13715,
  "Ls": 11333,
  "Lung": 25558,
  "Lymph": 22123,
  "Lys": 14476,
  "M": 44,
  "MA": 2557,
  "MAC": 19948,
  "MAP": 10332,
  "MAPK": 16107,
  "MAR": 21461,
  "MB": 6255,
  "MC": 4451,
  "MCA": 20379,
  "MCI": 25329,
  "MCP": 23386,
  "MCs": 28833,
  "MD": 3200,
  "MDA": 7126,
  "MDD": 27525,
  "MDR": 22259,
  "MDS": 25469,
  "ME": 4682,
  "MEK": 28785,
  "MET": 23461,
  "MF": 7810,
  "MG": 5590,
  "MH": 17740,
  "MHC": 17652,
  "MI": 2463,
  "MIC": 16351,
  "MIP": 28691,
  "MK": 15215,
  "ML": 5635,
  "MM": 11331,
  "MMP": 11883,
  "MN": 17019,
  "MO": 8136,
  "MOF": 28272,
  "MP": 1588,
  "MPA": 19710,
  "MPO": 21909,
  "MPs": 19626,
  "MR": 2756,
  "MRI": 6442,
  "MRS": 27099,
  "MRSA": 21476,
  "MRT": 16418,
  "MS": 1910,
  "MSC": 18010,
  "MSCs": 11464,
  "MSE": 17834,
  "MSH": 20770,
  "MSO": 15780,
  "MT": 3481,
  "MTS": 22718,
  "MTX": 24758,
  "MV": 6271,
  "MW": 9342,
  "MY": 23315,
  "Ma": 20298,
  "Mac": 17138,
  "Magnetic": 20080,
  "Mal": 15355,
  "Malignant": 23846,
  "Man": 9817,
  "Management": 16012,
  "Many": 13529,
  "Mat": 24215,
  "Maternal": 23891,
  "Me": 5097,
  "Meas": 25211,
  "Measure": 18326,
  "Measurement": 21332,
  "Mechan": 15507,
  "Mechanism": 27264,
  "Mechanisms": 23932,
  "Med": 7437,
  "Medical": 21120,
  "Meier": 12876,
  "Mel": 27303,
  "Mental": 23154,
  "Mes": 21981,
  "Met": 8235,
  "Metabolic": 22796,
  "Meth": 14480,
  "Methods": 26224,
  "Methyl": 23038,
  "Mg": 14961,
  "Mic": 9726,
  "Micro": 13691,
  "Min": 19065,
  "Mit": 17473,
  "Mitochondrial": 27640,
  "Mn": 12383,
  "Mo": 12306,
  "Mod": 9821,
  "Modulation": 23200,
  "Molecular": 9850,
  "Mon": 15971,
  "Monitoring": 27749,
  "Mor": 27946,
  "Morph": 17324,
  "Morphological": 28759,
  "Most": 18538,
  "Ms": 7475,
  "Mul": 8900,
  "Multi": 20712,
  "Multiple": 14940,
  "Mus": 26574,
  "Mut": 17440,
  "Mutations": 27617,
  "My": 12698,
  "Myc": 19056,
  "N": 45,
  "NA": 669,
  "NAC": 22699,
  "NAHL": 23383,
  "NAME": 16434,
  "NAc": 12340,
  "NB": 11461,
  "NC": 8174,
  "ND": 6405,
  "NE": 9567,
  "NES": 26840,
  "NF": 2368,
  "NFL": 25421,
  "NG": 12602,
  "NGF": 25350,
  "NH": 6437,
  "NHL": 21584,
  "NI": 9247,
  "NIR": 27144,
  "NK": 6147,
  "NKL": 19595,
  "NL": 17519,
  "NM": 11049,
  "NMDA": 18517,
  "NMR": 14079,
  "NN": 19109,
  "NO": 4148,
  "NOS": 6964,
  "NOVA": 12083,
  "NP": 2567,
  "NPV": 26316,
  "NPs": 6011,
  "NR": 8482,
  "NS": 3169,
  "NSAID": 25512,
  "NSC": 17229,
  "NSCC": 23484,
  "NSCLC": 19544,
  "NT": 3634,
  "NTES": 26878,
  "NTR": 20458,
  "NTS": 28109,
  "NTs": 12729,
  "NV": 16610,
  "Na": 8289,
  "Nan": 24547,
  "Natural": 23409,
  "Nb": 26640,
  "Ne": 6403,
  "Neonatal": 28802,
  "Neu": 20967,
  "Neuro": 11082,
  "New": 9699,
  "Ni": 13608,
  "Nit": 17618,
  "Nitric": 27210,
  "No": 10728,
  "Non": 10934,
  "Normal": 28478,
  "Novel": 15210,
  "Ns": 7721,
  "Nuclear": 27740,
  "Numer": 25739,
  "Nur": 22058,
  "Nutrition": 27167,
  "O": 46,
  "OA": 9005,
  "OB": 14135,
  "OC": 5154,
  "OCT": 17112,
  "OD": 4303,
  "OF": 6907,
  "OG": 18899,
  "OH": 3369,
  "OHD": 28757,
  "OHDA": 24626,
  "OL": 5445,
  "OM": 6795,
  "ON": 6811,
  "OP": 5289,
  "OR": 1966,
  "ORE": 26092,
  "ORF": 28501,
  "ORT": 18206,
  "ORs": 21582,
  "OS": 2382,
  "OSA": 24016,
  "OT": 7701,
  "OV": 14233,
  "OX": 6085,
  "Ob": 10111,
  "Obesity": 24662,
  "Objective": 20431,
  "Obser": 26721,
  "Oc": 27092,
  "Occ": 20714,
  "On": 9800,
  "One": 11878,
  "Op": 11602,
  "Optical": 27076,
  "Or": 11729,
  "Oral": 18836,
  "Organ": 18808,
  "Os": 13064,
  "Oste": 18083,
  "Our": 14131,
  "Out": 16443,
  "Ov": 26966,
  "Over": 14722,
  "Ox": 11518,
  "Oxidative": 25936,
  "P": 47,
  "PA": 1690,
  "PAA": 25743,
  "PAC": 18820,
  "PAF": 26367,
  "PAGE": 13838,
  "PAH": 23086,
  "PAHs": 25358,
  "PAI": 24780,
  "PAM": 28061,
  "PAP": 11632,
  "PAR": 7969,
  "PAS": 28594,
  "PAT": 20511,
  "PB": 13387,
  "PC": 3577,
  "PCA": 20586,
  "PCI": 19467,
  "PCL": 26926,
  "PCR": 3890,
  "PD": 2907,
  "PDE": 28380,
  "PDGF": 27248,
  "PDT": 22627,
  "PE": 3843,
  "PEC": 21450,
  "PEG": 12572,
  "PEI": 27999,
  "PET": 10674,
  "PF": 7767,
  "PFC": 22481,
  "PFS": 25535,
  "PG": 6927,
  "PGE": 20722,
  "PGF": 21964,
  "PH": 6538,
  "PI": 3717,
  "PK": 8324,
  "PKC": 17298,
  "PL": 7708,
  "PLA": 14731,
  "PLC": 21441,
  "PM": 8536,
  "PMA": 25025,
  "PMN": 27643,
  "PN": 18056,
  "PO": 4572,
  "PP": 4300,
  "PPAR": 24949,
  "PPI": 27277,
  "PPV": 26935,
  "PR": 4017,
  "PRL": 22366,
  "PS": 2239,
  "PSA": 16921,
  "PSC": 23199,
  "PSCs": 21100,
  "PSS": 13558,
  "PT": 3698,
  "PTH": 15418,
  "PTSD": 24988,
  "PTT": 26012,
  "PU": 19633,
  "PV": 3488,
  "PW": 18024,
  "Pa": 11760,
  "Pain": 28089,
  "Par": 12885,
  "Park": 27361,
  "Path": 17444,
  "Patient": 20683,
  "Patients": 12792,
  "Pb": 16321,
  "Pc": 25480,
  "Pd": 19189,
  "Pe": 23444,
  "Pediatric": 26964,
  "Per": 7612,
  "Perc": 20951,
  "Percutaneous": 22973,
  "Performance": 26531,
  "Peripheral": 25444,
  "Pers": 17604,
  "Ph": 4543,
  "Pharmac": 14045,
  "Pharmacokinetics": 27649,
  "Phase": 19669,
  "Phe": 13304,
  "Phen": 23503,
  "Phosph": 17893,
  "Phot": 16853,
  "Phys": 22985,
  "Physi": 25627,
  "Physical": 22605,
  "Pi": 19519,
  "Pl": 10337,
  "Plas": 14109,
  "Plasma": 17200,
  "Platelet": 26679,
  "Po": 21050,
  "Poly": 13943,
  "Polym": 26989,
  "Pos": 15360,
  "Post": 11719,
  "Postoperative": 26984,
  "Potential": 26172,
  "Pr": 13017,
  "Pre": 5302,
  "Pred": 21901,
  "Predic": 15842,
  "Predicting": 28342,
  "Prediction": 26700,
  "Predictors": 27385,
  "Preparation": 22002,
  "Pres": 17943,
  "Prevalence": 14071,
  "Prevention": 24631,
  "Previous": 11347,
  "Primary": 12718,
  "Pro": 4140,
  "Prob": 27223,
  "Production": 25592,
  "Prognostic": 20912,
  "Prol": 22667,
  "Prospective": 27960,
  "Prot": 18994,
  "Prote": 21847,
  "Protective": 26407,
  "Protein": 14700,
  "Ps": 3933,
  "Pseud": 22618,
  "Psych": 14409,
  "Pt": 13933,
  "Pulmonary": 17901,
  "Pur": 15879,
  "Purification": 22393,
  "Px": 27938,
  "Py": 22613,
  "Q": 48,
  "QC": 27490,
  "QDs": 26965,
  "QI": 22400,
  "QL": 19641,
  "QO": 27736,
  "QOL": 13099,
  "QR": 11915,
  "QT": 25823,
  "QoL": 12948,
  "Qu": 9241,
  "Quality": 19999,
  "Quantitative": 15689,
  "R": 49,
  "RA": 2668,
  "RACT": 7178,
  "RAF": 16480,
  "RAL": 27350,
  "RAS": 16481,
  "RB": 16756,
  "RBC": 25680,
  "RC": 19502,
  "RCC": 17451,
  "RCTs": 23414,
  "RD": 6775,
  "RE": 11282,
  "RF": 7900,
  "RFLP": 20157,
  "RG": 28199,
  "RH": 7439,
  "RI": 2115,
  "RIA": 27836,
  "RIF": 23934,
  "RII": 27891,
  "RIs": 23259,
  "RL": 23004,
  "RM": 21624,
  "RN": 18748,
  "RNA": 1404,
  "RNAs": 6421,
  "RNP": 26701,
  "RO": 15671,
  "ROC": 18182,
  "ROS": 13072,
  "RP": 2794,
  "RPE": 24353,
  "RR": 6492,
  "RS": 3386,
  "RSD": 27758,
  "RSV": 19012,
  "RT": 2953,
  "RTI": 26082,
  "RV": 16382,
  "Ra": 21141,
  "Radi": 12900,
  "Radiation": 28743,
  "Random": 26079,
  "Rapid": 16711,
  "Ras": 26921,
  "Rb": 19836,
  "Re": 4848,
  "Real": 28595,
  "Rec": 5704,
  "Recent": 9786,
  "Recently": 18021,
  "Recom": 24357,
  "Recurrent": 28536,
  "Red": 16670,
  "Reduced": 26757,
  "Ref": 23015,
  "Reg": 15714,
  "Regional": 28463,
  "Regulation": 16510,
  "Rel": 9458,
  "Related": 27441,
  "Relationship": 14835,
  "Rem": 23370,
  "Renal": 18938,
  "Rep": 21160,
  "Res": 6784,
  "Research": 19303,
  "Respon": 24272,
  "Results": 18259,
  "Ret": 15330,
  "Rever": 24939,
  "Review": 27117,
  "Rh": 14538,
  "Risk": 14612,
  "Ro": 27337,
  "Rob": 26417,
  "Role": 11173,
  "Rs": 6324,
  "Ru": 16300,
  "S": 50,
  "SA": 1602,
  "SAH": 26187,
  "SAID": 11854,
  "SAR": 16730,
  "SAT": 28825,
  "SB": 20822,
  "SBP": 23000,
  "SC": 4271,
  "SCC": 20641,
  "SCI": 18263,
  "SD": 2915,
  "SDS": 19735,
  "SE": 8564,
  "SEM": 13200,
  "SF": 9528,
  "SG": 20077,
  "SH": 2919,
  "SHR": 25171,
  "SI": 8243,
  "SK": 23130,
  "SL": 18586,
  "SLE": 18654,
  "SM": 5705,
  "SMA": 16682,
  "SMCs": 20377,
  "SN": 20005,
  "SNP": 22112,
  "SNPs": 20695,
  "SO": 7601,
  "SOD": 11635,
  "SP": 3098,
  "SPE": 22069,
  "SPECT": 22405,
  "SPR": 17836,
  "SR": 9106,
  "SS": 3699,
  "SSG": 26396,
  "ST": 2332,
  "STAT": 17492,
  "STEMI": 28070,
  "STR": 21312,
  "STRACT": 7355,
  "STs": 18996,
  "SU": 19941,
  "SV": 8667,
  "SW": 17820,
  "SY": 21871,
  "Safety": 25159,
  "Saharan": 24969,
  "Sal": 16845,
  "Sb": 26320,
  "Sc": 9750,
  "Sch": 15823,
  "Screening": 23870,
  "Se": 6086,
  "Second": 24608,
  "Selec": 14956,
  "Selective": 19373,
  "Self": 17245,
  "Sep": 26483,
  "Sepharose": 24160,
  "Sequ": 22735,
  "Ser": 8162,
  "Serum": 14603,
  "Several": 13318,
  "Severe": 22041,
  "Sex": 22856,
  "Sh": 12844,
  "Short": 18969,
  "Si": 11396,
  "SiO": 21263,
  "Sil": 27821,
  "Sim": 12414,
  "Simultaneous": 20448,
  "Since": 15550,
  "Single": 16906,
  "Six": 19033,
  "Sleep": 26951,
  "Sm": 11521,
  "Small": 21238,
  "Sn": 16945,
  "So": 28105,
  "Social": 22488,
  "Sol": 21917,
  "Some": 18042,
  "Sp": 10149,
  "Spatial": 27742,
  "Spec": 17191,
  "Specific": 19690,
  "Spinal": 27873,
  "Spontaneous": 21103,
  "Sr": 16703,
  "St": 4421,
  "Ste": 26344,
  "Str": 17810,
  "Stress": 27395,
  "Structural": 16419,
  "Structure": 18334,
  "Studies": 12171,
  "Study": 13592,
  "Sub": 11704,
  "Successful": 22334,
  "Sup": 13049,
  "Super": 25456,
  "Sur": 12945,
  "Surface": 23927,
  "Surgical": 14438,
  "Sus": 25698,
  "Sv": 21844,
  "Sw": 26085,
  "Syn": 18218,
  "Synthesis": 10864,
  "System": 16345,
  "Systemic": 24058,
  "T": 51,
  "TA": 4343,
  "TB": 10657,
  "TBI": 18675,
  "TC": 9437,
  "TCP": 24362,
  "TCR": 24607,
  "TD": 21682,
  "TE": 7372,
  "TEM": 18194,
  "TERT": 24899,
  "TF": 16083,
  "TG": 11145,
  "TGF": 13639,
  "TH": 13799,
  "TI": 9433,
  "TK": 19319,
  "TL": 19343,
  "TLR": 19273,
  "TM": 13920,
  "TMS": 18494,
  "TN": 24237,
  "TNF": 7782,
  "TO": 27996,
  "TOF": 13683,
  "TOR": 12202,
  "TP": 1878,
  "TPA": 26240,
  "TPs": 26301,
  "TR": 6654,
  "TRA": 22683,
  "TS": 6933,
  "TSH": 21252,
  "TT": 10255,
  "TV": 27865,
  "TX": 26397,
  "Ta": 22617,
  "Target": 21225,
  "Tc": 8557,
  "Te": 15163,
  "Tem": 26849,
  "Temporal": 28729,
  "Ten": 25066,
  "Ter": 27475,
  "Test": 28794,
  "Tf": 28067,
  "Tg": 22657,
  "Th": 2108,
  "The": 714,
  "Ther": 20001,
  "Therapeutic": 23045,
  "There": 8277,
  "Thirty": 24188,
  "This": 2686,
  "Thr": 19457,
  "Three": 10827,
  "Thromb": 24927,
  "Ti": 16427,
  "TiO": 15627,
  "Time": 18084,
  "Tissue": 23316,
  "Tl": 27753,
  "Tn": 15146,
  "To": 1852,
  "Top": 24966,
  "Total": 21108,
  "Tox": 28027,
  "Tr": 8837,
  "Tra": 15437,
  "Tran": 16024,
  "Trans": 8656,
  "Transc": 28852,
  "Treatment": 10596,
  "Treg": 28014,
  "Trials": 25311,
  "Trp": 20761,
  "Ts": 19751,
  "Tumor": 20987,
  "Twenty": 18562,
  "Two": 7455,
  "Tx": 27585,
  "Type": 18778,
  "Tyr": 16412,
  "U": 52,
  "UA": 17386,
  "UC": 5527,
  "UD": 13955,
  "UE": 27645,
  "UG": 27095,
  "UL": 28751,
  "ULT": 22622,
  "ULTS": 24363,
  "UM": 27623,
  "UN": 5403,
  "UNEL": 17719,
  "UP": 15863,
  "UR": 9680,
  "US": 4747,
  "UT": 8413,
  "UTR": 21079,
  "UV": 7056,
  "Ul": 26637,
  "Ultr": 28687,
  "Ultras": 15880,
  "Ultrasound": 27120,
  "Un": 8808,
  "Under": 16413,
  "Understanding": 20131,
  "Up": 15931,
  "Ur": 20536,
  "Urinary": 25273,
  "Us": 15494,
  "Use": 10724,
  "Using": 11066,
  "V": 53,
  "VA": 5172,
  "VAS": 16429,
  "VC": 19603,
  "VD": 15288,
  "VE": 17258,
  "VEGF": 12045,
  "VF": 20765,
  "VH": 25243,
  "VHD": 12881,
  "VI": 7828,
  "VIP": 28360,
  "VL": 21036,
  "VO": 13178,
  "VP": 11861,
  "VR": 14430,
  "VS": 15943,
  "VT": 9755,
  "Vac": 28471,
  "Val": 11493,
  "Validation": 25690,
  "Vari": 15000,
  "Various": 25740,
  "Vascular": 21405,
  "Ver": 23893,
  "Vis": 21032,
  "Visual": 22888,
  "Vitamin": 22655,
  "Vol": 26524,
  "Vs": 15607,
  "W": 54,
  "WA": 19736,
  "WB": 24828,
  "WC": 25362,
  "WD": 21936,
  "WF": 13782,
  "WHO": 20713,
  "WI": 11877,
  "WL": 17273,
  "WM": 22494,
  "WP": 24032,
  "WR": 27976,
  "WS": 12655,
  "WT": 12154,
  "Wallis": 28692,
  "Water": 25660,
  "We": 2139,
  "Wh": 8110,
  "What": 17342,
  "When": 15425,
  "While": 19635,
  "White": 28724,
  "Whitney": 19250,
  "With": 13742,
  "Work": 27155,
  "Ws": 14892,
  "X": 55,
  "XA": 11018,
  "XR": 13011,
  "XRD": 23480,
  "XS": 19407,
  "XX": 21333,
  "XY": 26151,
  "Y": 56,
  "YAG": 17194,
  "YP": 4551,
  "YS": 21012,
  "Z": 57,
  "ZP": 26456,
  "ZV": 25931,
  "Zn": 9853,
  "ZnO": 28258,
  "Zr": 25514,
  "[": 58,
  "[(": 24825,
  "\\": 59,
  "]": 60,
  "](": 13129,
  "])": 8606,
  "]),": 14110,
  "]).": 12122,
  "],": 4450,
  "]-": 7246,
  "].": 1250,
  "]:": 18872,
  "];": 12480,
  "][": 19577,
  "^": 61,
  "^{": 27211,
  "_": 62,
  "_{": 21198,
  "`": 63,
  "a": 64,
  "aOR": 24720,
  "aa": 24752,
  "ab": 374,
  "aba": 23061,
  "abain": 15988,
  "aban": 21531,
  "abap": 25758,
  "abapentin": 26080,
  "abatic": 24483,
  "abd": 14754,
  "abdominal": 11274,
  "abetes": 10269,
  "abetic": 8271,
  "abil": 2181,
  "abilistic": 20592,
  "abilities": 5997,
  "ability": 917,
  "abilization": 18041,
  "abilized": 18017,
  "abilizing": 28145,
  "abin": 9621,
  "abine": 9854,
  "abis": 15124,
  "abl": 1701,
  "ablation": 25575,
  "able": 573,
  "abled": 8398,
  "ables": 2426,
  "abling": 10363,
  "ably": 2063,
  "abol": 12738,
  "abolic": 8097,
  "abolism": 12467,
  "abor": 4659,
  "about": 18772,
  "abric": 5958,
  "abrication": 27289,
  "abs": 7281,
  "absorption": 13692,
  "abular": 14402,
  "ac": 306,
  "aca": 18028,
  "acc": 5999,
  "accept": 20733,
  "acceptor": 27597,
  "acces": 21743,
  "acch": 3449,
  "accha": 10540,
  "acchar": 3989,
  "accharide": 5618,
  "accharides": 8372,
  "accharomyces": 10887,
  "acco": 6514,
  "accumulation": 21887,
  "ace": 812,
  "acea": 17499,
  "aceae": 8623,
  "aced": 13432,
  "acent": 5878,
  "acental": 24810,
  "aceous": 14948,
  "acer": 5431,
  "acerb": 8282,
  "acers": 18638,
  "aces": 4089,
  "acet": 3439,
  "acetamide": 24897,
  "acetamol": 19486,
  "acetate": 10421,
  "acetic": 10097,
  "acetyl": 5736,
  "acetylation": 28054,
  "acetylcysteine": 26958,
  "aceu": 6377,
  "ach": 671,
  "ache": 3906,
  "acheal": 15239,
  "ached": 3846,
  "aches": 3043,
  "aching": 4224,
  "achlor": 12341,
  "achment": 5625,
  "achol": 17939,
  "acholine": 23849,
  "achus": 26928,
  "aci": 27709,
  "acia": 16504,
  "acial": 7203,
  "acid": 9588,
  "acies": 22239,
  "acil": 9452,
  "acillin": 20383,
  "acillus": 6616,
  "acin": 5046,
  "acing": 11031,
  "acity": 24734,
  "ack": 1050,
  "acked": 20419,
  "ackground": 20455,
  "acking": 12259,
  "acks": 18250,
  "aco": 12452,
  "acoustic": 19297,
  "acquired": 15866,
  "acr": 4836,
  "acral": 18365,
  "acrine": 20789,
  "acryl": 8468,
  "acrylamide": 10375,
  "acrylate": 12229,
  "acrylic": 28671,
  "act": 655,
  "actam": 20301,
  "actant": 7112,
  "actants": 14813,
  "acted": 6375,
  "acter": 698,
  "acterial": 6989,
  "acterium": 14996,
  "actic": 4672,
  "actin": 5912,
  "acting": 5533,
  "action": 815,
  "actions": 1462,
  "activ": 2483,
  "activated": 4740,
  "activating": 12638,
  "activation": 4764,
  "activator": 22569,
  "active": 1774,
  "activities": 19461,
  "activity": 2752,
  "actone": 15399,
  "actor": 6612,
  "actors": 7732,
  "acts": 3669,
  "acture": 13543,
  "actures": 28629,
  "actyl": 22779,
  "actyly": 26927,
  "acute": 11522,
  "acy": 1307,
  "acycl": 7546,
  "acyclin": 19356,
  "acyl": 9097,
  "acylglycer": 27174,
  "acylglycerol": 15901,
  "acyt": 24733,
  "ad": 413,
  "ada": 5706,
  "adap": 13256,
  "adapted": 20921,
  "adaptive": 23243,
  "adate": 23689,
  "adays": 20810,
  "adder": 3549,
  "adders": 28420,
  "ade": 1554,
  "adec": 15950,
  "adecyl": 26930,
  "aded": 18881,
  "adel": 26126,
  "ademic": 7133,
  "aden": 5923,
  "adenoma": 28004,
  "adenosine": 18099,
  "adenosyl": 26682,
  "adequ": 8131,
  "ades": 5353,
  "adex": 18618,
  "adherence": 25068,
  "adi": 1925,
  "adian": 6694,
  "adic": 6878,
  "adication": 13239,
  "adiene": 25428,
  "adily": 7150,
  "adin": 26636,
  "adine": 17514,
  "ading": 11687,
  "adiol": 5739,
  "adip": 25120,
  "adir": 24348,
  "adish": 18999,
  "adium": 12664,
  "adj": 6726,
  "adjusted": 7558,
  "admin": 12521,
  "administered": 13527,
  "administration": 14705,
  "ado": 21372,
  "adol": 21684,
  "adoles": 28586,
  "adone": 16704,
  "adow": 20863,
  "adren": 5817,
  "adrenal": 9389,
  "adrenaline": 11666,
  "adrenergic": 8505,
  "adreno": 10823,
  "adrenoceptor": 13868,
  "adrenoceptors": 20081,
  "ads": 7257,
  "advant": 11003,
  "adver": 28076,
  "ady": 6254,
  "ae": 1760,
  "aea": 23555,
  "aec": 16732,
  "ael": 18131,
  "aemia": 4872,
  "aemic": 7633,
  "aeus": 26983,
  "af": 1414,
  "afe": 20044,
  "afenib": 20673,
  "afety": 12057,
  "aff": 2799,
  "affe": 27429,
  "affec": 7179,
  "affected": 7753,
  "affective": 28345,
  "affin": 10586,
  "affinity": 10947,
  "afil": 11392,
  "afluor": 25293,
  "aft": 18771,
  "after": 8589,
  "ag": 371,
  "agal": 21226,
  "agas": 17226,
  "age": 557,
  "aged": 2828,
  "agement": 1592,
  "agen": 2619,
  "agenic": 23275,
  "agens": 19815,
  "agent": 24248,
  "ager": 16734,
  "agers": 11293,
  "ages": 1211,
  "aget": 25887,
  "agg": 9825,
  "agglut": 11381,
  "agglutination": 21374,
  "agglutinin": 16229,
  "aggreg": 19596,
  "aggregation": 27676,
  "agia": 12019,
  "agic": 7880,
  "agin": 22937,
  "aginal": 11207,
  "aging": 1422,
  "aginous": 23966,
  "agit": 10969,
  "agittal": 11426,
  "agland": 6623,
  "aglandin": 21342,
  "agle": 22994,
  "agliptin": 28322,
  "agmus": 20504,
  "agn": 701,
  "agnetic": 5606,
  "ago": 16334,
  "agon": 2482,
  "agonal": 18050,
  "agonist": 18464,
  "agonists": 23395,
  "ague": 22695,
  "agul": 6860,
  "agulation": 5576,
  "ah": 8321,
  "aharan": 24057,
  "ai": 2237,
  "aicin": 15138,
  "aid": 9118,
  "aided": 20626,
  "aight": 11165,
  "ail": 856,
  "ailand": 16849,
  "ailed": 10098,
  "ails": 13250,
  "ailure": 14363,
  "ain": 400,
  "aine": 4599,
  "ained": 1917,
  "aining": 2307,
  "ains": 1279,
  "aint": 8571,
  "aints": 6841,
  "air": 5341,
  "aired": 28813,
  "airs": 17782,
  "ait": 7709,
  "ak": 635,
  "aka": 20617,
  "akage": 28764,
  "akary": 17561,
  "ake": 1277,
  "aked": 17663,
  "aken": 2538,
  "akening": 26515,
  "aker": 9827,
  "akers": 10527,
  "akes": 4207,
  "aki": 19111,
  "akia": 22669,
  "akic": 26638,
  "aking": 2565,
  "aks": 21308,
  "al": 268,
  "ala": 22969,
  "alanine": 10015,
  "alasin": 24414,
  "alazine": 27547,
  "albumin": 14516,
  "albuminuria": 21655,
  "alc": 5497,
  "alcoholic": 17075,
  "ald": 15110,
  "aldehyde": 12667,
  "ale": 960,
  "aled": 10782,
  "ales": 2372,
  "alfa": 25042,
  "alg": 14857,
  "algae": 24039,
  "algia": 15824,
  "alian": 4087,
  "aliana": 17852,
  "alignment": 28249,
  "alin": 21647,
  "aline": 21341,
  "aling": 3325,
  "alis": 13671,
  "alities": 6789,
  "ality": 1234,
  "alk": 4737,
  "alking": 7646,
  "alkyl": 12853,
  "all": 583,
  "alle": 22327,
  "alled": 7920,
  "allel": 18321,
  "alleng": 19887,
  "allenge": 24946,
  "allenges": 28369,
  "allergic": 21017,
  "allic": 15141,
  "allik": 18905,
  "allikrein": 19512,
  "alling": 7890,
  "allis": 25442,
  "allium": 19403,
  "allow": 9317,
  "ally": 566,
  "allyl": 27802,
  "alone": 21148,
  "alpha": 2334,
  "als": 871,
  "alsal": 26369,
  "alsalva": 27222,
  "alse": 6831,
  "also": 24525,
  "alsy": 10383,
  "alt": 15821,
  "altered": 18178,
  "alth": 785,
  "alu": 584,
  "am": 353,
  "ama": 15164,
  "amage": 27285,
  "aman": 8403,
  "amate": 5161,
  "amatergic": 21595,
  "amb": 3401,
  "ambda": 22841,
  "amber": 24121,
  "ambiguous": 21106,
  "ame": 3068,
  "amed": 7448,
  "amedullary": 25385,
  "amel": 10029,
  "amellar": 26078,
  "amen": 12560,
  "ament": 4594,
  "amental": 6959,
  "aments": 8716,
  "amer": 11712,
  "amers": 20974,
  "ames": 13255,
  "amet": 1269,
  "ameter": 19473,
  "ameters": 24281,
  "ameth": 6601,
  "amethasone": 8002,
  "amethoxazole": 24579,
  "ami": 19243,
  "amic": 1368,
  "amicin": 13401,
  "amid": 16160,
  "amide": 3094,
  "amides": 14949,
  "amido": 21963,
  "amil": 7134,
  "amili": 23322,
  "amilial": 18796,
  "amiliar": 26833,
  "amilies": 22019,
  "amilton": 17417,
  "amily": 7280,
  "amin": 744,
  "aminase": 11764,
  "aminated": 17007,
  "amination": 8195,
  "amine": 1288,
  "aminergic": 8698,
  "amines": 8388,
  "aming": 17566,
  "aminidase": 16395,
  "amino": 5310,
  "aminobenz": 28544,
  "aminobutyric": 19918,
  "aminophen": 15484,
  "amm": 1140,
  "amma": 2609,
  "ammalian": 25633,
  "ammary": 26971,
  "ammon": 12920,
  "ammonium": 15388,
  "amn": 13238,
  "amo": 25788,
  "amoeba": 22512,
  "amol": 13948,
  "amole": 23306,
  "amous": 5692,
  "amp": 2126,
  "ampered": 20819,
  "amphenicol": 18471,
  "amphetamine": 13778,
  "ampl": 13443,
  "ample": 16537,
  "amples": 19009,
  "ampling": 26843,
  "ams": 4757,
  "amus": 7662,
  "amycin": 7788,
  "amyl": 10001,
  "amylase": 18333,
  "amyloid": 20909,
  "an": 280,
  "ana": 6672,
  "anal": 3562,
  "analyses": 16803,
  "analysis": 5273,
  "analytic": 23228,
  "analytical": 23941,
  "anamycin": 27371,
  "anase": 16432,
  "anat": 16725,
  "anate": 24399,
  "anatomical": 25453,
  "anc": 513,
  "ance": 516,
  "anced": 1558,
  "ancement": 19447,
  "ancer": 857,
  "ancerous": 25604,
  "ancers": 20314,
  "ances": 1887,
  "anch": 16102,
  "ancial": 10091,
  "anciclovir": 26755,
  "ancies": 4298,
  "ancing": 5845,
  "ancomycin": 13048,
  "ancre": 13295,
  "ancreatic": 14030,
  "ancy": 1905,
  "and": 503,
  "anda": 23034,
  "anded": 5584,
  "andem": 8029,
  "ander": 16154,
  "andid": 3574,
  "anding": 21714,
  "andom": 1646,
  "androgen": 26257,
  "androst": 28096,
  "androsterone": 24288,
  "ands": 2120,
  "ane": 1037,
  "aned": 13861,
  "aneoplastic": 27899,
  "aneous": 1395,
  "aner": 22390,
  "anercept": 26813,
  "anes": 8764,
  "anese": 12510,
  "anesthetized": 24037,
  "anesulf": 24111,
  "aneurys": 17774,
  "ang": 672,
  "ange": 1007,
  "angeal": 19585,
  "anger": 9511,
  "angerhans": 19807,
  "anges": 6800,
  "angi": 4666,
  "angiect": 21985,
  "angiectasia": 26289,
  "anging": 21114,
  "angiogenic": 16176,
  "angiotensin": 16384,
  "angitis": 20786,
  "angl": 14343,
  "anglades": 23829,
  "angle": 10850,
  "anglionic": 25339,
  "angu": 5104,
  "anguage": 5859,
  "anguine": 28500,
  "angular": 16348,
  "ani": 13812,
  "ania": 15312,
  "anic": 7383,
  "anide": 18123,
  "anil": 14597,
  "aniline": 24554,
  "animal": 28240,
  "anin": 14252,
  "anine": 4796,
  "aning": 8983,
  "anion": 27327,
  "anish": 8660,
  "anium": 8595,
  "ank": 4119,
  "anking": 11206,
  "ankton": 18577,
  "ann": 1300,
  "annabin": 19463,
  "anned": 7715,
  "annel": 11119,
  "annels": 25881,
  "anning": 2995,
  "ano": 9008,
  "anoate": 22168,
  "anoic": 21759,
  "anoid": 25048,
  "anol": 2845,
  "anolic": 24392,
  "anone": 23356,
  "anos": 10922,
  "anosoma": 17621,
  "ans": 803,
  "ansion": 5980,
  "ant": 385,
  "anta": 23088,
  "antal": 25944,
  "anted": 7797,
  "antel": 23791,
  "anterior": 27196,
  "anth": 4197,
  "anthin": 19070,
  "anthine": 12683,
  "anthracene": 27332,
  "anthrene": 21421,
  "anthus": 22715,
  "anti": 1498,
  "antial": 24807,
  "antibodies": 24401,
  "antibody": 21244,
  "antic": 8389,
  "antif": 16422,
  "antification": 20356,
  "antigen": 15746,
  "antigens": 21302,
  "antile": 15664,
  "antit": 2180,
  "antitative": 7157,
  "antitrypsin": 27363,
  "antle": 21932,
  "anto": 26542,
  "antoin": 27071,
  "antom": 9824,
  "ants": 887,
  "antum": 5656,
  "anum": 17507,
  "anus": 12144,
  "anx": 25363,
  "any": 4478,
  "anyl": 15318,
  "anz": 13309,
  "anzapine": 20637,
  "aortic": 15755,
  "ap": 509,
  "apa": 3497,
  "apac": 21731,
  "apamil": 12986,
  "apan": 4143,
  "aparin": 23968,
  "aparoscopic": 13945,
  "apatite": 13769,
  "ape": 3650,
  "aped": 6856,
  "apenem": 18620,
  "apeptide": 18405,
  "apes": 26632,
  "aph": 3256,
  "apheresis": 21680,
  "aphth": 13884,
  "aphthal": 15165,
  "aphthalene": 18958,
  "aphyl": 5484,
  "apid": 11303,
  "apillary": 14478,
  "apine": 10206,
  "apo": 19044,
  "aponic": 15770,
  "apopt": 10514,
  "apoptotic": 11363,
  "apor": 7450,
  "apore": 21707,
  "aporin": 26943,
  "aposi": 23909,
  "app": 2875,
  "appa": 4854,
  "appe": 10591,
  "appeared": 10667,
  "apped": 9200,
  "apping": 4714,
  "appro": 6774,
  "appropriate": 11152,
  "approved": 27652,
  "approximately": 12828,
  "april": 16634,
  "aps": 2936,
  "apse": 4467,
  "apsed": 19123,
  "apsular": 18936,
  "apsules": 21841,
  "apt": 8245,
  "apter": 13079,
  "aptic": 4701,
  "apto": 23124,
  "apular": 17526,
  "aque": 15558,
  "aques": 23501,
  "ar": 291,
  "ara": 11769,
  "arabin": 25098,
  "arabine": 21533,
  "arach": 11258,
  "arachnoid": 13389,
  "aracter": 6003,
  "araldehyde": 21175,
  "aran": 19408,
  "arant": 16492,
  "arate": 14950,
  "aration": 21299,
  "arb": 2110,
  "arbon": 14181,
  "arbonate": 13563,
  "arboxyl": 9809,
  "arboxylic": 19757,
  "arby": 20101,
  "arc": 1723,
  "arch": 2649,
  "arche": 23596,
  "architect": 22811,
  "arcin": 4060,
  "arcinoma": 19119,
  "arco": 16576,
  "arcoma": 5285,
  "arcomas": 20581,
  "arctation": 25286,
  "arctic": 27697,
  "arction": 19672,
  "ard": 821,
  "arded": 22354,
  "ardi": 1187,
  "ardia": 7468,
  "ardiac": 19191,
  "arding": 2964,
  "ardized": 17095,
  "ardless": 22611,
  "ards": 8220,
  "are": 1166,
  "area": 16920,
  "arean": 8864,
  "ared": 706,
  "aren": 5115,
  "arene": 27993,
  "areness": 6924,
  "arer": 28731,
  "ares": 7624,
  "aresis": 24937,
  "arest": 23495,
  "aret": 7883,
  "arg": 973,
  "arge": 1230,
  "arged": 7737,
  "arger": 24205,
  "arget": 1379,
  "argin": 24774,
  "arginine": 10132,
  "ari": 590,
  "aria": 5182,
  "ariable": 9932,
  "ariae": 24851,
  "arial": 10996,
  "arian": 3585,
  "arians": 19028,
  "ariasis": 28702,
  "ariate": 3376,
  "ariatric": 15769,
  "aric": 6372,
  "aries": 4215,
  "arietal": 20179,
  "arijuana": 21823,
  "arily": 3790,
  "arin": 6317,
  "arine": 18170,
  "aring": 3324,
  "arinic": 11665,
  "ario": 16957,
  "arious": 23068,
  "aris": 9777,
  "arith": 18256,
  "arity": 14325,
  "arium": 10258,
  "arius": 22753,
  "ark": 1005,
  "arkers": 28143,
  "arly": 1078,
  "arm": 1428,
  "armac": 6857,
  "armaceu": 14924,
  "armaceutical": 20424,
  "armaceuticals": 25550,
  "armacy": 23656,
  "arming": 20620,
  "arms": 24308,
  "aro": 6747,
  "aromatic": 24978,
  "arone": 16592,
  "arose": 15807,
  "arotene": 16490,
  "arous": 17573,
  "arox": 24839,
  "arp": 7966,
  "arpal": 19990,
  "arr": 3649,
  "array": 21161,
  "arrh": 14022,
  "arrhythmic": 15713,
  "arri": 3451,
  "arrier": 18116,
  "arriers": 16020,
  "arrow": 6479,
  "ars": 4040,
  "arsal": 16640,
  "arse": 11029,
  "art": 1171,
  "artan": 11466,
  "arter": 8062,
  "arterectomy": 19537,
  "arterial": 12711,
  "arth": 5723,
  "artic": 2558,
  "articular": 12246,
  "artile": 11376,
  "arting": 23468,
  "artment": 5797,
  "artom": 26170,
  "arts": 8677,
  "artum": 23087,
  "artz": 19216,
  "arum": 9269,
  "arus": 26373,
  "arv": 4608,
  "ary": 466,
  "arying": 23635,
  "aryl": 10930,
  "aryn": 3491,
  "aryng": 8645,
  "aryngeal": 5411,
  "arynx": 10859,
  "as": 287,
  "asaki": 28683,
  "asal": 3663,
  "asant": 20978,
  "asc": 1048,
  "ascent": 26395,
  "ascial": 28858,
  "ascin": 21023,
  "ascorb": 28426,
  "ascul": 7191,
  "ascular": 1174,
  "asculature": 27868,
  "ase": 391,
  "ased": 1153,
  "aseous": 22275,
  "aser": 14507,
  "ases": 660,
  "ash": 5509,
  "ashes": 22158,
  "ashing": 19036,
  "ashion": 9356,
  "asi": 9641,
  "asia": 9859,
  "asian": 12333,
  "asians": 21559,
  "asibility": 27762,
  "asic": 6910,
  "asin": 19352,
  "asing": 7295,
  "asion": 24879,
  "asis": 1941,
  "ask": 2493,
  "asm": 10603,
  "asome": 11896,
  "ason": 3538,
  "asonal": 9271,
  "asone": 7316,
  "asonography": 28123,
  "asons": 5628,
  "asp": 21767,
  "aspartate": 13951,
  "ass": 657,
  "assay": 6223,
  "assays": 14448,
  "assemb": 8749,
  "assembled": 16444,
  "assembly": 12382,
  "assemia": 16626,
  "assess": 12947,
  "assessed": 21645,
  "assessment": 20414,
  "assi": 5589,
  "assica": 25619,
  "assion": 25890,
  "assisted": 6779,
  "assium": 6026,
  "assive": 5094,
  "associated": 3419,
  "ast": 576,
  "astases": 26376,
  "astasis": 24544,
  "astatic": 15150,
  "astatin": 8242,
  "aste": 7847,
  "asted": 13194,
  "aster": 4731,
  "astern": 10931,
  "asters": 27625,
  "asthen": 18961,
  "asthenia": 19962,
  "astic": 5822,
  "astically": 19354,
  "astig": 17944,
  "astigotes": 26341,
  "asting": 12351,
  "astolic": 5902,
  "astom": 6015,
  "astrectomy": 14674,
  "astric": 8816,
  "astro": 10582,
  "asts": 10351,
  "astuzumab": 22476,
  "asty": 6763,
  "asure": 7433,
  "asy": 22043,
  "at": 275,
  "ata": 761,
  "atab": 12671,
  "atable": 16980,
  "atal": 1209,
  "atally": 27866,
  "atase": 4889,
  "atases": 20395,
  "atation": 9468,
  "atch": 5926,
  "atched": 17673,
  "atching": 15598,
  "ate": 360,
  "atechin": 24732,
  "atectomy": 12241,
  "ated": 339,
  "ateg": 1479,
  "atelet": 15934,
  "atell": 8487,
  "atellite": 9380,
  "atellites": 27296,
  "ately": 1431,
  "ateness": 20388,
  "ater": 670,
  "ateral": 1609,
  "aterally": 12785,
  "aterals": 26768,
  "atergic": 21473,
  "aterial": 14792,
  "aterials": 10607,
  "aternal": 9308,
  "aternary": 19030,
  "aternity": 28862,
  "aters": 8814,
  "ates": 617,
  "atever": 26776,
  "ath": 579,
  "athe": 5961,
  "athecal": 15794,
  "ather": 9079,
  "athered": 16298,
  "atheter": 12097,
  "athetic": 6620,
  "athic": 18875,
  "athin": 22947,
  "athion": 22440,
  "athione": 5592,
  "athiop": 21392,
  "athioprine": 21643,
  "athoracic": 22950,
  "athy": 4718,
  "athyroid": 7032,
  "athyroidism": 14125,
  "ati": 323,
  "atia": 20877,
  "atial": 12455,
  "atibility": 7891,
  "atible": 7840,
  "atic": 726,
  "atics": 9634,
  "atid": 9967,
  "atide": 22640,
  "atidic": 27472,
  "atids": 24148,
  "atidyl": 6717,
  "atidyle": 20959,
  "atidylethanolamine": 22028,
  "atient": 3345,
  "atients": 2052,
  "atif": 6447,
  "atigue": 6422,
  "atil": 14854,
  "atile": 6904,
  "atility": 17942,
  "atin": 1811,
  "atine": 24196,
  "ating": 691,
  "atings": 7051,
  "atinib": 13556,
  "atins": 11833,
  "atinum": 11120,
  "atio": 15806,
  "ation": 296,
  "ational": 1098,
  "ationally": 14549,
  "ations": 434,
  "ationship": 1529,
  "atis": 1338,
  "atisfaction": 16291,
  "atisfactory": 18245,
  "atism": 15906,
  "atit": 20774,
  "atite": 11433,
  "atitis": 2591,
  "ativ": 28108,
  "ative": 486,
  "atively": 12123,
  "atives": 2968,
  "ativity": 13507,
  "atization": 12421,
  "atized": 16025,
  "ato": 9281,
  "atographic": 27551,
  "atography": 24493,
  "atoid": 28705,
  "atology": 11756,
  "atom": 13436,
  "atoma": 20994,
  "atomic": 25057,
  "atonin": 8535,
  "ator": 1587,
  "atorial": 16191,
  "atories": 9732,
  "ators": 2510,
  "atory": 860,
  "atosis": 9655,
  "atous": 22746,
  "atr": 17592,
  "atran": 25942,
  "atri": 22098,
  "atrial": 19804,
  "atric": 11983,
  "atrol": 15259,
  "ats": 4007,
  "att": 12762,
  "atten": 22962,
  "attern": 12031,
  "atterns": 18463,
  "atto": 24748,
  "atum": 7774,
  "atumoral": 23996,
  "atur": 5033,
  "atural": 14875,
  "aturated": 6689,
  "aturation": 6337,
  "ature": 950,
  "atured": 19870,
  "atures": 1842,
  "aturing": 16315,
  "atus": 1731,
  "au": 4956,
  "auc": 6848,
  "auer": 28030,
  "aug": 26630,
  "ault": 14468,
  "aund": 15899,
  "aurospor": 27921,
  "aurosporine": 28668,
  "aus": 4447,
  "ausal": 6392,
  "ause": 1556,
  "ausea": 10812,
  "aussian": 15485,
  "aut": 10558,
  "author": 11976,
  "av": 1022,
  "ava": 20033,
  "avage": 4942,
  "avail": 7725,
  "available": 24052,
  "aval": 12068,
  "avalin": 18821,
  "ave": 2404,
  "aved": 10305,
  "aven": 9048,
  "aventricular": 21587,
  "aver": 19618,
  "average": 13515,
  "aves": 4317,
  "avesical": 23287,
  "avi": 6193,
  "avian": 18573,
  "avicular": 24447,
  "avig": 12017,
  "aving": 7869,
  "avir": 10210,
  "avirin": 18688,
  "avirus": 9873,
  "avity": 25426,
  "avoid": 25095,
  "avor": 12673,
  "avorable": 14201,
  "avour": 22164,
  "avourable": 24675,
  "avy": 5398,
  "aw": 2837,
  "awa": 22864,
  "aware": 26096,
  "awater": 18367,
  "awley": 10553,
  "ax": 1530,
  "axanthin": 27278,
  "axation": 22606,
  "axel": 8459,
  "axial": 12822,
  "axis": 4877,
  "ay": 441,
  "aya": 27846,
  "ayed": 2960,
  "ayer": 5062,
  "ayered": 27898,
  "ayers": 8697,
  "ays": 818,
  "az": 1725,
  "aza": 21285,
  "aze": 15882,
  "azem": 19935,
  "azep": 9883,
  "azepam": 17481,
  "azepine": 15404,
  "azid": 22988,
  "azidime": 26059,
  "azine": 6868,
  "azo": 17742,
  "azol": 8071,
  "azolam": 15855,
  "azole": 4656,
  "azoles": 27515,
  "azolin": 26854,
  "azoline": 22668,
  "azone": 12261,
  "b": 65,
  "bB": 15089,
  "ba": 11837,
  "bach": 15737,
  "back": 4770,
  "bacterial": 23048,
  "bacterium": 27352,
  "bal": 4284,
  "balanced": 21067,
  "ball": 11908,
  "ban": 5595,
  "band": 9381,
  "bands": 26781,
  "bar": 17317,
  "bas": 17793,
  "base": 10431,
  "based": 1524,
  "baseline": 23260,
  "bb": 3406,
  "be": 3371,
  "beam": 18142,
  "bean": 9913,
  "bearing": 9393,
  "beat": 25798,
  "bec": 9074,
  "bed": 17356,
  "before": 28808,
  "behavi": 14782,
  "behavioral": 18734,
  "being": 8602,
  "beit": 19256,
  "bel": 28142,
  "benefit": 23213,
  "benz": 5580,
  "benzene": 20636,
  "benzo": 20791,
  "benzoyl": 27386,
  "benzyl": 15349,
  "ber": 5055,
  "berg": 11223,
  "berine": 28158,
  "berry": 18589,
  "best": 13616,
  "bet": 16637,
  "beta": 2367,
  "between": 25088,
  "bi": 6309,
  "bian": 27616,
  "biased": 21026,
  "bic": 24431,
  "bil": 23043,
  "bilities": 15401,
  "bility": 2083,
  "bin": 974,
  "binant": 16035,
  "binding": 3935,
  "bing": 17531,
  "bio": 28291,
  "biological": 20046,
  "biosis": 26525,
  "biotic": 12527,
  "biotics": 26556,
  "biotin": 26826,
  "bip": 23169,
  "birth": 13797,
  "bis": 9630,
  "bisphosphate": 28273,
  "bit": 18711,
  "bital": 25892,
  "bite": 28773,
  "bl": 3239,
  "bladder": 11104,
  "blast": 9591,
  "blastine": 26656,
  "blastoma": 12030,
  "ble": 836,
  "bleeding": 25998,
  "bles": 15838,
  "blind": 6384,
  "blinded": 22406,
  "block": 10365,
  "blocker": 23107,
  "blockers": 17932,
  "blocking": 25342,
  "blood": 16565,
  "blot": 28468,
  "bly": 12912,
  "bo": 2858,
  "board": 20665,
  "bodies": 8616,
  "body": 6122,
  "bon": 16705,
  "bond": 12643,
  "bonded": 20441,
  "bonding": 22332,
  "bone": 10489,
  "book": 19549,
  "bor": 5799,
  "born": 4926,
  "borne": 9343,
  "both": 13121,
  "bound": 6935,
  "bow": 9895,
  "box": 16782,
  "bp": 10926,
  "bpy": 25001,
  "br": 1292,
  "bra": 7740,
  "brain": 7321,
  "bral": 2335,
  "bre": 6176,
  "break": 7937,
  "breat": 23673,
  "bred": 11692,
  "breeding": 20781,
  "brid": 2698,
  "bridement": 17152,
  "bridge": 24384,
  "brile": 13485,
  "bris": 17330,
  "brom": 11784,
  "bromo": 19606,
  "bruary": 10896,
  "bs": 4063,
  "bu": 16073,
  "buff": 23871,
  "buffered": 28431,
  "bul": 11663,
  "bular": 4909,
  "bumin": 8662,
  "bur": 24221,
  "burg": 15900,
  "burgh": 25808,
  "burn": 19281,
  "but": 4922,
  "butamol": 24634,
  "butyl": 11065,
  "butyrate": 19986,
  "by": 3896,
  "c": 66,
  "cAMP": 14913,
  "cDNA": 24094,
  "cGMP": 25646,
  "ca": 10062,
  "cad": 11674,
  "cadherin": 12535,
  "cal": 3201,
  "calation": 17026,
  "calc": 13067,
  "calcium": 27577,
  "cale": 12289,
  "called": 11855,
  "calmodulin": 27662,
  "can": 16925,
  "cancer": 13334,
  "cap": 8834,
  "cape": 9644,
  "capes": 28218,
  "car": 11685,
  "carb": 4344,
  "carbon": 16839,
  "carbonyl": 22562,
  "carbox": 25143,
  "carboxy": 24731,
  "carboxyl": 17402,
  "carboxylic": 25778,
  "cardi": 7194,
  "cardiac": 18835,
  "care": 3860,
  "carnitine": 21486,
  "carotene": 17581,
  "cas": 27202,
  "case": 13392,
  "cast": 23654,
  "cat": 8239,
  "catal": 8233,
  "catalyzed": 11105,
  "catenin": 11130,
  "cation": 22116,
  "caus": 28177,
  "cause": 12201,
  "cc": 9092,
  "ce": 328,
  "cean": 17528,
  "ced": 1271,
  "cedural": 17704,
  "cedure": 22306,
  "cein": 11221,
  "ceived": 4837,
  "cel": 16013,
  "celain": 27986,
  "cell": 2432,
  "cellent": 25382,
  "cells": 9798,
  "cellular": 7251,
  "cellulose": 16350,
  "cement": 12375,
  "cemia": 15981,
  "cence": 2172,
  "cens": 15413,
  "cent": 1425,
  "center": 14542,
  "centered": 15622,
  "centr": 8395,
  "central": 25737,
  "centration": 13312,
  "centrations": 15791,
  "centre": 25177,
  "centred": 25736,
  "centric": 17796,
  "cents": 4243,
  "cep": 654,
  "cephal": 5012,
  "cephalic": 28157,
  "cephalus": 13277,
  "cephaly": 24143,
  "ceps": 22143,
  "cept": 1915,
  "cepti": 3191,
  "ceptibility": 23526,
  "ceptible": 18993,
  "ception": 3725,
  "ceptional": 17841,
  "ceptions": 6759,
  "ceptive": 13251,
  "ceptor": 959,
  "ceptors": 9232,
  "cepts": 8212,
  "ceptual": 11089,
  "cer": 10009,
  "ceramide": 27166,
  "ces": 936,
  "cess": 747,
  "cession": 19443,
  "cessive": 5869,
  "cg": 25747,
  "ch": 462,
  "cha": 20160,
  "chain": 7656,
  "chair": 23113,
  "chan": 19689,
  "chang": 5354,
  "change": 4195,
  "changed": 6712,
  "channel": 13713,
  "chanteric": 24856,
  "character": 16508,
  "characterized": 19482,
  "charge": 14176,
  "che": 22418,
  "ched": 3072,
  "chem": 1980,
  "chemia": 22713,
  "chemic": 11939,
  "chemical": 5798,
  "chemotherapy": 27885,
  "cher": 16771,
  "chers": 7745,
  "ches": 4960,
  "chi": 13446,
  "chicine": 18127,
  "chid": 20438,
  "child": 12330,
  "children": 19186,
  "chin": 23269,
  "ching": 3554,
  "chip": 20402,
  "chlor": 4903,
  "chloride": 25614,
  "chlorinated": 19781,
  "chloro": 13550,
  "chlorophenyl": 27545,
  "choice": 23752,
  "chol": 10618,
  "cholate": 22619,
  "cholesterol": 10815,
  "cholic": 20614,
  "choline": 5917,
  "cholinesterase": 14490,
  "chond": 19988,
  "chondral": 28221,
  "chool": 12153,
  "chro": 23589,
  "chrom": 11739,
  "chromosome": 27487,
  "chron": 6028,
  "chronic": 18163,
  "chrotron": 24371,
  "chym": 4973,
  "chymal": 6328,
  "ci": 17006,
  "cidin": 27508,
  "cience": 20947,
  "cin": 964,
  "cinated": 24151,
  "cination": 17575,
  "cine": 3177,
  "cinetobacter": 21734,
  "cing": 14089,
  "cinolone": 28839,
  "cintigraphy": 28140,
  "cious": 7968,
  "circ": 17803,
  "cis": 11453,
  "cit": 11022,
  "citabine": 15645,
  "ck": 5132,
  "cking": 26886,
  "cl": 645,
  "clamp": 14002,
  "class": 8402,
  "classical": 26356,
  "cle": 1220,
  "cler": 4273,
  "clerosis": 14762,
  "cles": 4536,
  "clim": 14098,
  "clinical": 5936,
  "clonal": 11966,
  "cluded": 23814,
  "cluding": 8707,
  "clusion": 3344,
  "clusive": 14202,
  "cm": 6443,
  "cn": 16452,
  "cnemi": 20481,
  "cnemius": 20633,
  "co": 1303,
  "coagul": 19715,
  "coagulant": 27852,
  "coal": 24646,
  "coated": 10145,
  "coding": 14687,
  "coelastic": 20560,
  "cognitive": 16817,
  "coh": 2503,
  "cohol": 13732,
  "coholic": 15031,
  "coil": 28374,
  "col": 9444,
  "coll": 24735,
  "collagen": 27535,
  "color": 24168,
  "column": 26020,
  "com": 3589,
  "combin": 27073,
  "come": 6312,
  "comes": 10136,
  "coming": 16491,
  "comings": 25952,
  "comitant": 21246,
  "commun": 25398,
  "comp": 7972,
  "compart": 20515,
  "compartment": 23994,
  "competitive": 28388,
  "complete": 23745,
  "complex": 18564,
  "component": 16502,
  "compulsive": 22533,
  "computed": 24124,
  "computer": 27548,
  "con": 1389,
  "concentration": 24539,
  "concept": 23671,
  "conditioned": 28192,
  "conf": 14716,
  "conjug": 27059,
  "conjugated": 18434,
  "conomic": 26018,
  "cons": 9476,
  "consuming": 20198,
  "cont": 12386,
  "contact": 21339,
  "containing": 5165,
  "contaminated": 21183,
  "contin": 18548,
  "contrast": 17119,
  "control": 3662,
  "controlled": 6844,
  "controls": 25869,
  "conv": 22218,
  "conver": 14117,
  "conversion": 24832,
  "converting": 15088,
  "convulsive": 24823,
  "cop": 923,
  "cope": 13764,
  "copenia": 25058,
  "cophen": 23201,
  "coplas": 11696,
  "coplasma": 17753,
  "coplasmic": 19802,
  "coprotein": 5451,
  "copy": 19985,
  "cor": 5199,
  "core": 14180,
  "corrected": 14449,
  "correlation": 22473,
  "cortic": 25554,
  "cortical": 13696,
  "cortisone": 19126,
  "cost": 14932,
  "cotic": 25323,
  "coun": 5518,
  "coup": 10662,
  "coupled": 12927,
  "coupling": 23542,
  "course": 19921,
  "coxon": 20624,
  "cp": 25032,
  "cr": 759,
  "creat": 22696,
  "creatinine": 26897,
  "crib": 1149,
  "cribed": 5404,
  "crimin": 4159,
  "crip": 1440,
  "cript": 17541,
  "cription": 1989,
  "criptional": 15991,
  "criptions": 14856,
  "criptive": 17992,
  "cripts": 26572,
  "cristine": 19197,
  "cross": 17204,
  "crystal": 18289,
  "crystall": 14327,
  "crystallin": 27011,
  "crystalline": 21154,
  "cs": 27247,
  "ct": 2305,
  "ction": 12098,
  "ctomy": 8079,
  "cultural": 22804,
  "culture": 17993,
  "cultured": 22884,
  "cur": 27930,
  "current": 15311,
  "cus": 14033,
  "cut": 16620,
  "cutaneous": 3721,
  "cy": 2725,
  "cyan": 27261,
  "cycl": 5426,
  "cycle": 13655,
  "cyclic": 11166,
  "cyclodextrin": 20411,
  "cyclohex": 23051,
  "cys": 9175,
  "cysteine": 14380,
  "cystic": 14774,
  "cyt": 3598,
  "cyte": 6858,
  "cytes": 4748,
  "cytic": 17182,
  "cytochrome": 28099,
  "d": 67,
  "dG": 21897,
  "dL": 9274,
  "dR": 26069,
  "dT": 22949,
  "dU": 15395,
  "da": 7419,
  "daily": 17749,
  "dal": 9860,
  "dam": 15367,
  "dans": 25910,
  "dark": 25919,
  "dase": 9533,
  "date": 16512,
  "day": 2461,
  "days": 13230,
  "db": 24565,
  "dc": 21062,
  "de": 775,
  "death": 26007,
  "dec": 12130,
  "ded": 4464,
  "deed": 14114,
  "def": 4178,
  "deficient": 6905,
  "deficit": 25696,
  "defined": 9449,
  "deg": 14530,
  "degrading": 24116,
  "degree": 16470,
  "dehy": 5029,
  "dehyde": 5549,
  "dehydes": 17283,
  "del": 11154,
  "deletion": 26717,
  "delta": 10845,
  "dem": 15270,
  "demographic": 20957,
  "den": 3408,
  "dens": 21366,
  "dense": 23785,
  "density": 7630,
  "dentif": 7050,
  "dentification": 8349,
  "dents": 24092,
  "denum": 24517,
  "deoxy": 9677,
  "dep": 6584,
  "dependence": 19680,
  "dependent": 1751,
  "dependently": 14925,
  "depleted": 18596,
  "depr": 24304,
  "depress": 8005,
  "deprived": 27378,
  "depth": 14775,
  "dequ": 26185,
  "dequate": 28831,
  "der": 718,
  "dered": 9313,
  "derived": 3937,
  "derly": 3617,
  "dermal": 16069,
  "ders": 5671,
  "des": 1953,
  "design": 25995,
  "designed": 23121,
  "desis": 19455,
  "destructive": 26361,
  "det": 13950,
  "detector": 23231,
  "determined": 27160,
  "developed": 22923,
  "dex": 6300,
  "dh": 26402,
  "di": 368,
  "dia": 12269,
  "diabetes": 24861,
  "diabetic": 9698,
  "diagn": 8641,
  "diagnosed": 13053,
  "diagnosis": 18663,
  "diagnostic": 21391,
  "dial": 6143,
  "dialdehyde": 15034,
  "dialysis": 15035,
  "diameter": 22943,
  "diaph": 28550,
  "dias": 25033,
  "diastolic": 15722,
  "dibular": 6327,
  "dic": 7929,
  "dications": 15602,
  "dichlor": 15793,
  "dichloro": 28786,
  "diethyl": 27265,
  "diff": 13264,
  "difference": 25173,
  "differentiated": 18787,
  "diffusion": 23215,
  "dig": 10356,
  "dihydro": 12140,
  "dihydroxy": 13025,
  "dihydroxyvitamin": 24854,
  "dii": 13087,
  "dil": 19501,
  "dim": 17388,
  "dimensional": 3425,
  "dimer": 19034,
  "dimethyl": 8509,
  "din": 11004,
  "dine": 18005,
  "ding": 550,
  "diol": 20492,
  "dione": 22647,
  "diopathic": 25751,
  "dip": 19190,
  "diphenyl": 16780,
  "direct": 23455,
  "directed": 9949,
  "dis": 5682,
  "disc": 7344,
  "discharge": 22770,
  "disciplinary": 8098,
  "disease": 28533,
  "disper": 20773,
  "diss": 17603,
  "distance": 24505,
  "dition": 834,
  "ditional": 3608,
  "ditionally": 5066,
  "ditioned": 17950,
  "ditioning": 13333,
  "ditions": 1407,
  "ditis": 23463,
  "dividual": 12038,
  "dl": 8120,
  "dle": 4103,
  "dm": 19567,
  "do": 20072,
  "documented": 27953,
  "dom": 2381,
  "domain": 12567,
  "domains": 26267,
  "domen": 12870,
  "dominal": 3413,
  "dominant": 19658,
  "don": 22013,
  "donor": 22743,
  "dop": 9940,
  "dopa": 23403,
  "dopamine": 18811,
  "doped": 14187,
  "dor": 21973,
  "dorferi": 26075,
  "dose": 4436,
  "double": 25454,
  "down": 6092,
  "dr": 2519,
  "draw": 6134,
  "dried": 22561,
  "driven": 10455,
  "dro": 944,
  "drome": 12613,
  "dromic": 25290,
  "drug": 6724,
  "dry": 26269,
  "ds": 1983,
  "dsorption": 25725,
  "dt": 15810,
  "duc": 418,
  "duce": 3240,
  "duced": 621,
  "ducing": 7982,
  "duct": 16254,
  "ductase": 16467,
  "duction": 844,
  "ductive": 19184,
  "ducts": 21266,
  "duodenal": 24559,
  "dural": 19078,
  "duration": 26609,
  "dwelling": 19469,
  "dy": 21695,
  "dyl": 4542,
  "dynamic": 10578,
  "dys": 17375,
  "e": 68,
  "eAg": 21340,
  "ea": 20861,
  "eal": 7108,
  "ealand": 11307,
  "ear": 511,
  "earch": 1510,
  "earing": 6843,
  "early": 13400,
  "earman": 17546,
  "earning": 18233,
  "ears": 6780,
  "earson": 15061,
  "eart": 9075,
  "east": 26567,
  "ec": 300,
  "ecal": 6106,
  "ecan": 11377,
  "ecanoyl": 25432,
  "ece": 13263,
  "eces": 10312,
  "ech": 618,
  "echan": 966,
  "echanical": 7818,
  "echanics": 22460,
  "echin": 17977,
  "echn": 7770,
  "echni": 17801,
  "echnical": 18002,
  "echnological": 24017,
  "echnology": 12522,
  "echo": 18853,
  "echol": 8051,
  "ecium": 25796,
  "eck": 13445,
  "eclamp": 9673,
  "eclampsia": 10613,
  "econd": 4900,
  "econds": 27389,
  "economic": 7518,
  "ecre": 24855,
  "ecrosis": 17870,
  "ect": 1487,
  "ectable": 9498,
  "ectant": 25009,
  "ectants": 21601,
  "ectasis": 27447,
  "ected": 1097,
  "ectic": 28715,
  "ectin": 5194,
  "ecting": 4851,
  "ection": 646,
  "ections": 6189,
  "ectious": 16077,
  "ective": 2802,
  "ectom": 8244,
  "ectomies": 17892,
  "ectomized": 10326,
  "ectomy": 2548,
  "ector": 6481,
  "ectors": 16233,
  "ects": 3366,
  "ecum": 23418,
  "ecund": 24014,
  "ecutive": 3221,
  "ed": 269,
  "edded": 8601,
  "edding": 22064,
  "eded": 8363,
  "edema": 12490,
  "edes": 21254,
  "edge": 12287,
  "ediatric": 7083,
  "edic": 6465,
  "edical": 10682,
  "edicated": 14737,
  "edicine": 26686,
  "eding": 2047,
  "edipine": 14017,
  "edle": 15975,
  "edoch": 23024,
  "eds": 4779,
  "educ": 7135,
  "educed": 9893,
  "edullary": 18939,
  "ee": 12183,
  "eed": 11853,
  "eedback": 27299,
  "een": 9186,
  "ees": 11605,
  "ef": 2805,
  "eff": 17937,
  "effec": 4112,
  "effect": 13455,
  "effective": 7367,
  "effectiveness": 11002,
  "effects": 11024,
  "efficacy": 13165,
  "efficiency": 28497,
  "efficient": 16173,
  "efined": 17869,
  "efitinib": 26480,
  "eg": 9422,
  "eight": 8181,
  "ejun": 8918,
  "ek": 1148,
  "eking": 16769,
  "el": 321,
  "elan": 11628,
  "elanoma": 23811,
  "elast": 21924,
  "elastic": 14552,
  "ele": 12323,
  "elec": 3211,
  "elecoxib": 24485,
  "electric": 7104,
  "electrical": 27387,
  "electro": 9223,
  "electrode": 19393,
  "electroly": 19530,
  "electrolyte": 22513,
  "electron": 10243,
  "electronic": 18295,
  "electroph": 23111,
  "electrophoresis": 27975,
  "eled": 3859,
  "element": 25209,
  "elen": 7364,
  "eles": 24926,
  "eless": 12548,
  "elevation": 28885,
  "elf": 1632,
  "elfare": 15461,
  "eli": 4849,
  "eliability": 23224,
  "eliac": 12961,
  "elian": 28636,
  "elic": 9292,
  "elicobacter": 12233,
  "elihood": 7473,
  "elin": 19386,
  "eline": 2259,
  "elines": 3972,
  "eliness": 24171,
  "eling": 3116,
  "ell": 378,
  "ella": 3522,
  "ellae": 21127,
  "ellar": 4662,
  "ellate": 17461,
  "elle": 13344,
  "ellec": 12891,
  "ellectual": 13469,
  "elled": 6880,
  "eller": 18810,
  "elles": 9095,
  "ellig": 11681,
  "elling": 3706,
  "ellosis": 19325,
  "ellow": 9882,
  "ellular": 1657,
  "ellum": 10120,
  "elong": 23190,
  "els": 2141,
  "elt": 9559,
  "elta": 6044,
  "eluting": 18894,
  "elve": 8176,
  "elves": 8840,
  "elvic": 16152,
  "em": 361,
  "ema": 4074,
  "emale": 11306,
  "emat": 7644,
  "ematic": 21126,
  "ematous": 23718,
  "emb": 919,
  "embedded": 16037,
  "ember": 4482,
  "embered": 18579,
  "embers": 24553,
  "emble": 10677,
  "embran": 19536,
  "embrane": 6925,
  "emed": 19145,
  "ement": 989,
  "ements": 6159,
  "emerg": 23800,
  "emi": 2774,
  "emia": 1756,
  "emias": 16689,
  "emic": 2395,
  "emide": 16281,
  "emin": 24817,
  "eminal": 12854,
  "emission": 25662,
  "emitting": 21914,
  "emographic": 8694,
  "emoral": 12285,
  "emory": 17189,
  "emotional": 27242,
  "emp": 16222,
  "emph": 17210,
  "emphig": 19211,
  "empl": 15186,
  "empor": 6164,
  "emporal": 9036,
  "emporary": 11380,
  "emulsification": 25091,
  "emulsion": 24321,
  "emy": 19793,
  "en": 263,
  "ena": 15719,
  "enafil": 19746,
  "enal": 5415,
  "enan": 22219,
  "enari": 8266,
  "enc": 598,
  "encaps": 20718,
  "encapsulated": 25374,
  "ence": 456,
  "enced": 2420,
  "encephal": 7228,
  "encephalic": 20087,
  "encephalon": 22344,
  "ences": 1652,
  "ench": 23571,
  "enching": 13003,
  "enchym": 24746,
  "enchymal": 7821,
  "encies": 3167,
  "encing": 3257,
  "encl": 16301,
  "enclamide": 25231,
  "enclature": 26228,
  "encoded": 20002,
  "encoding": 23888,
  "ency": 882,
  "end": 589,
  "enda": 25513,
  "endazole": 22292,
  "ended": 1967,
  "endence": 10932,
  "endent": 1025,
  "ender": 11238,
  "enders": 19179,
  "endi": 21742,
  "endicular": 17327,
  "ending": 3262,
  "endit": 10261,
  "endix": 25132,
  "endocrine": 10128,
  "endorphin": 20738,
  "endothelial": 17968,
  "endritic": 26916,
  "endronate": 28645,
  "ends": 14229,
  "endym": 19477,
  "ene": 1103,
  "ened": 4077,
  "enedi": 16263,
  "enediamine": 26353,
  "enedione": 24329,
  "enef": 2080,
  "enefit": 20340,
  "enem": 11890,
  "energe": 26049,
  "energy": 9834,
  "eners": 20663,
  "enes": 5060,
  "enesis": 24976,
  "eness": 2871,
  "enet": 19101,
  "enetic": 6268,
  "eng": 1363,
  "enge": 4214,
  "enger": 10468,
  "engers": 25939,
  "engine": 19581,
  "engineered": 26719,
  "ength": 2178,
  "engthen": 15867,
  "engths": 8787,
  "engue": 14138,
  "enh": 14272,
  "enhanced": 8556,
  "enhancing": 24923,
  "enia": 5420,
  "enib": 18340,
  "enic": 3534,
  "enicill": 15450,
  "enicillin": 11339,
  "enicillium": 25247,
  "enign": 23913,
  "enin": 9015,
  "ening": 1518,
  "enkephalin": 19701,
  "enn": 16228,
  "eno": 24476,
  "enoic": 13528,
  "enol": 12746,
  "enolol": 25671,
  "enone": 23277,
  "enop": 5419,
  "enopausal": 7392,
  "enopus": 13257,
  "enorhab": 23903,
  "enorhabditis": 24612,
  "enriched": 15337,
  "ens": 637,
  "ensable": 17632,
  "ensated": 23198,
  "ensation": 17599,
  "ense": 2781,
  "ensed": 17555,
  "enses": 15176,
  "ensi": 1047,
  "ensile": 15228,
  "ensin": 4827,
  "ensing": 12496,
  "ension": 1757,
  "ensis": 6165,
  "ensiti": 18172,
  "ensities": 7143,
  "ensitive": 9167,
  "ensitivity": 8817,
  "ensitization": 13041,
  "ensitized": 28817,
  "ensity": 1525,
  "ensive": 3363,
  "ensor": 7328,
  "ensors": 15185,
  "ensory": 9640,
  "enstr": 9248,
  "enstrual": 10479,
  "ensus": 6128,
  "ent": 292,
  "enta": 8327,
  "ental": 1080,
  "entan": 8910,
  "entanil": 16783,
  "entanyl": 13656,
  "entary": 14574,
  "entation": 17711,
  "ented": 10168,
  "enter": 1907,
  "enteric": 9139,
  "entery": 28684,
  "entgen": 19993,
  "enth": 12114,
  "enti": 522,
  "entia": 5501,
  "ential": 953,
  "entially": 7493,
  "entical": 5076,
  "entif": 854,
  "entific": 6225,
  "entil": 26216,
  "entilation": 19133,
  "entin": 18859,
  "ention": 8587,
  "entists": 14723,
  "ently": 1175,
  "enton": 20651,
  "entorial": 26455,
  "entr": 624,
  "entral": 1985,
  "entre": 16609,
  "entric": 1837,
  "entricular": 2277,
  "entrifug": 25491,
  "entrifugation": 28405,
  "entry": 7164,
  "ents": 357,
  "environ": 9842,
  "environment": 11413,
  "enyl": 14175,
  "enz": 2121,
  "enza": 19355,
  "enzo": 23355,
  "enzymatic": 19799,
  "enzyme": 9105,
  "enzymes": 18223,
  "eor": 24441,
  "ep": 540,
  "ependence": 15559,
  "ependent": 1134,
  "eper": 13486,
  "epi": 18627,
  "epiandrosterone": 25119,
  "epid": 12607,
  "epilep": 14369,
  "epileptic": 15160,
  "eping": 20449,
  "epit": 8585,
  "epithelial": 9862,
  "eprazole": 17445,
  "eps": 10589,
  "epsia": 23844,
  "epsilon": 20123,
  "ept": 5564,
  "eptember": 9270,
  "epti": 1443,
  "eptic": 14791,
  "eptidase": 12129,
  "eptide": 4118,
  "eptides": 7480,
  "eptidyl": 28094,
  "eptin": 15593,
  "eption": 11859,
  "eptive": 8189,
  "eptives": 19346,
  "eptor": 18831,
  "equ": 3227,
  "equivalent": 25631,
  "er": 265,
  "era": 7836,
  "eradish": 19227,
  "erae": 23627,
  "eral": 2738,
  "erally": 18337,
  "erals": 18417,
  "erate": 6512,
  "erated": 4824,
  "erating": 8278,
  "eration": 1417,
  "erative": 1075,
  "erbB": 28164,
  "erc": 1282,
  "ercetin": 14355,
  "ercise": 11362,
  "ercul": 4333,
  "erculosis": 4862,
  "erculous": 16064,
  "ercury": 8977,
  "ere": 320,
  "erea": 24118,
  "ereb": 10892,
  "erebellar": 21699,
  "erebral": 9273,
  "erebro": 20479,
  "erebroventricular": 21781,
  "erectomy": 9353,
  "ered": 868,
  "eremia": 13000,
  "eren": 497,
  "erence": 2156,
  "erences": 9796,
  "erenol": 14153,
  "erens": 26779,
  "erent": 9291,
  "erential": 15323,
  "erents": 14936,
  "erers": 26812,
  "eres": 8365,
  "erest": 2886,
  "erg": 931,
  "erge": 8833,
  "erged": 21135,
  "ergic": 2539,
  "ergies": 8923,
  "ergy": 1867,
  "eri": 25239,
  "eria": 24571,
  "eric": 2207,
  "eries": 12935,
  "erin": 27695,
  "ering": 2507,
  "erks": 27624,
  "erm": 3656,
  "ermal": 5437,
  "ermi": 26628,
  "ern": 9605,
  "ero": 7539,
  "erobic": 7918,
  "erpine": 27163,
  "err": 6790,
  "ers": 469,
  "ersinia": 25005,
  "ersion": 16607,
  "ert": 8262,
  "ertain": 2760,
  "erule": 22893,
  "eruleus": 28428,
  "erus": 20743,
  "erv": 1261,
  "ervated": 16097,
  "ervation": 4289,
  "ervative": 7093,
  "erve": 2298,
  "erved": 4055,
  "erves": 17622,
  "ervical": 3301,
  "erving": 12072,
  "ervised": 26844,
  "ery": 881,
  "eryth": 3731,
  "es": 277,
  "esarean": 8945,
  "esartan": 27579,
  "ese": 2887,
  "esia": 28768,
  "esian": 13148,
  "esides": 9014,
  "esin": 25824,
  "esis": 1611,
  "esity": 3824,
  "esium": 8147,
  "esophag": 16878,
  "esophageal": 8998,
  "especially": 22087,
  "ess": 411,
  "essary": 13271,
  "essation": 9345,
  "essel": 12498,
  "essels": 22359,
  "ession": 2554,
  "essional": 14471,
  "essive": 11770,
  "est": 464,
  "establ": 13438,
  "established": 15487,
  "este": 15369,
  "ested": 1256,
  "esteem": 16166,
  "ester": 4192,
  "estern": 3726,
  "esterone": 7029,
  "esters": 22892,
  "esthesi": 25693,
  "esthesia": 16234,
  "esthetic": 13307,
  "esthetized": 20605,
  "esti": 12816,
  "estic": 5056,
  "esticular": 8018,
  "estig": 892,
  "estim": 24301,
  "estinal": 2526,
  "esting": 9665,
  "estion": 2015,
  "estions": 5088,
  "estive": 7414,
  "estock": 19177,
  "estr": 12730,
  "estradiol": 10939,
  "estrogen": 14088,
  "estrogens": 23345,
  "estrous": 27029,
  "estrus": 19933,
  "ests": 1501,
  "et": 311,
  "eta": 2034,
  "etal": 2416,
  "etaldehyde": 21367,
  "etallic": 26561,
  "etan": 26155,
  "etary": 10763,
  "etaxel": 16056,
  "ete": 17167,
  "etection": 8827,
  "eted": 22410,
  "eteen": 15419,
  "etence": 22760,
  "etent": 15334,
  "eter": 3474,
  "etermin": 6224,
  "eterminate": 23700,
  "etermination": 11059,
  "etermined": 13815,
  "etermining": 20806,
  "eters": 15335,
  "etes": 2072,
  "eth": 1043,
  "ethane": 20442,
  "ethanol": 14756,
  "ethel": 18330,
  "etheless": 18394,
  "ether": 6522,
  "ethnic": 23993,
  "ethnicity": 28581,
  "ethoprim": 22137,
  "ethoxy": 15778,
  "ethyl": 1601,
  "ethylation": 17839,
  "ethylene": 7152,
  "eti": 3622,
  "etic": 1290,
  "etics": 12546,
  "eties": 12304,
  "etin": 6609,
  "etine": 11401,
  "eting": 19843,
  "etite": 15391,
  "etnam": 19739,
  "eto": 23532,
  "etobacter": 20599,
  "etom": 19046,
  "etomidine": 21540,
  "etoprotein": 20851,
  "etr": 5967,
  "etra": 13076,
  "etracycl": 25683,
  "etracycline": 26724,
  "etrating": 27093,
  "etric": 4605,
  "etron": 19258,
  "etry": 2650,
  "ets": 4687,
  "ett": 20634,
  "ette": 12442,
  "ettes": 20132,
  "etting": 17001,
  "etts": 17183,
  "etu": 20014,
  "etus": 5756,
  "etuximab": 28376,
  "etwork": 12568,
  "ety": 1332,
  "etyl": 18953,
  "eu": 1566,
  "eutic": 1927,
  "ev": 8657,
  "evalu": 19572,
  "evaluated": 25613,
  "evaluation": 22466,
  "ever": 811,
  "everal": 5089,
  "everity": 16650,
  "evoked": 14217,
  "ew": 704,
  "ewise": 14635,
  "ework": 4694,
  "eworthy": 25962,
  "ex": 1011,
  "examin": 24068,
  "examined": 28740,
  "exc": 16708,
  "except": 25567,
  "exchange": 14768,
  "exercise": 22703,
  "existing": 12344,
  "exp": 11141,
  "expensive": 15390,
  "exper": 13265,
  "experienced": 28504,
  "experimental": 22509,
  "exponential": 27957,
  "exposed": 11178,
  "exposure": 16747,
  "expressed": 17111,
  "expressing": 12460,
  "expression": 12132,
  "ext": 12066,
  "extraction": 18147,
  "exual": 12832,
  "exy": 21231,
  "ey": 2522,
  "eydig": 18536,
  "eye": 28080,
  "eyer": 27501,
  "eyond": 24648,
  "ez": 15523,
  "f": 69,
  "fMRI": 24999,
  "fa": 12395,
  "fac": 2690,
  "face": 6824,
  "faceted": 24777,
  "facial": 16869,
  "fact": 28745,
  "factant": 25170,
  "faction": 13874,
  "factor": 7267,
  "factorial": 15990,
  "factorily": 26291,
  "factors": 21922,
  "factory": 5037,
  "fall": 14240,
  "falls": 19505,
  "family": 19630,
  "fan": 27567,
  "farin": 12314,
  "fast": 16445,
  "fat": 10398,
  "fatal": 18674,
  "fe": 6686,
  "fect": 18251,
  "fed": 10182,
  "feed": 23757,
  "feeding": 9126,
  "fel": 21428,
  "female": 20154,
  "fen": 9305,
  "fer": 1053,
  "ference": 7456,
  "feri": 25599,
  "ferior": 17743,
  "feron": 15059,
  "ferred": 4032,
  "fetal": 26464,
  "fetil": 27351,
  "fetoprotein": 22352,
  "ff": 396,
  "ffe": 8007,
  "ffec": 453,
  "ffee": 17405,
  "ffer": 23003,
  "fficacy": 8300,
  "ffici": 6887,
  "fficient": 2735,
  "fficients": 6944,
  "fib": 8200,
  "fiber": 21330,
  "fibr": 25213,
  "fibrin": 24455,
  "field": 7652,
  "fig": 24192,
  "fil": 8006,
  "filament": 21987,
  "filled": 20838,
  "film": 24972,
  "filtration": 24639,
  "fin": 18624,
  "first": 17867,
  "fish": 7214,
  "fit": 22109,
  "five": 7008,
  "fixed": 16326,
  "fl": 4276,
  "flat": 15951,
  "flav": 23704,
  "flex": 19924,
  "flight": 15743,
  "flow": 5637,
  "flower": 26255,
  "floxacin": 10784,
  "flu": 3437,
  "fluence": 9813,
  "fluenza": 22567,
  "fluid": 26787,
  "fluor": 6148,
  "fluores": 19267,
  "fluoro": 12769,
  "fluorouracil": 15483,
  "flurane": 22082,
  "flux": 20993,
  "fly": 18815,
  "foc": 18703,
  "focal": 13288,
  "focused": 22978,
  "folate": 19958,
  "fold": 2694,
  "folded": 18236,
  "foli": 19904,
  "foot": 14258,
  "for": 3758,
  "force": 15402,
  "ford": 15729,
  "fore": 1084,
  "form": 613,
  "formance": 6633,
  "formation": 2806,
  "formations": 9519,
  "formed": 9407,
  "formin": 12621,
  "forming": 8467,
  "forms": 5872,
  "fort": 6716,
  "fortunately": 14941,
  "forward": 15309,
  "fos": 14781,
  "four": 6488,
  "fr": 12059,
  "fraction": 26203,
  "fracture": 28608,
  "fram": 22815,
  "frame": 26591,
  "free": 3028,
  "frequency": 8726,
  "friend": 20922,
  "friendly": 23183,
  "from": 8433,
  "front": 19857,
  "fs": 26681,
  "ft": 1109,
  "fted": 19330,
  "fter": 551,
  "fting": 23560,
  "fts": 8019,
  "fu": 18156,
  "ful": 1064,
  "fully": 21623,
  "fulness": 13821,
  "function": 2534,
  "functional": 9226,
  "functionalized": 22138,
  "functioning": 23499,
  "functions": 18107,
  "fur": 18917,
  "furan": 23310,
  "fused": 16928,
  "fusion": 2397,
  "g": 70,
  "ga": 7993,
  "gal": 4016,
  "galact": 9740,
  "galactose": 28056,
  "galactosidase": 16930,
  "gall": 28557,
  "gamma": 4618,
  "gan": 1136,
  "gans": 4802,
  "gap": 24636,
  "gar": 17429,
  "gas": 19206,
  "gated": 15184,
  "gative": 1537,
  "gauge": 27518,
  "ge": 470,
  "geal": 5324,
  "ged": 3900,
  "gel": 7669,
  "gels": 14788,
  "gen": 716,
  "gence": 9905,
  "gender": 25104,
  "gene": 8665,
  "geneic": 19368,
  "gener": 20710,
  "generated": 18694,
  "generating": 26002,
  "generation": 4811,
  "generative": 7098,
  "genes": 28127,
  "genesis": 14882,
  "genetic": 26627,
  "genic": 4793,
  "genital": 24506,
  "genome": 28178,
  "gens": 3946,
  "gent": 5847,
  "geon": 26411,
  "geons": 16911,
  "ger": 8700,
  "gered": 20855,
  "gers": 23065,
  "ges": 3042,
  "gesia": 16880,
  "gest": 13637,
  "gestational": 28065,
  "gesterone": 16457,
  "gestive": 13160,
  "get": 2645,
  "gether": 3462,
  "gevity": 16905,
  "gg": 4673,
  "gi": 5212,
  "gia": 7547,
  "gian": 16934,
  "gic": 10854,
  "gin": 4966,
  "gine": 23291,
  "ging": 5467,
  "gium": 25015,
  "gl": 1806,
  "glass": 26457,
  "glia": 27764,
  "glial": 21185,
  "glob": 8889,
  "globin": 22290,
  "globulin": 11128,
  "glottic": 26666,
  "gluc": 4445,
  "glucan": 23559,
  "glucopyranosyl": 28296,
  "glucos": 24339,
  "glucosamine": 24330,
  "glucose": 8744,
  "glucosidase": 20439,
  "glucoside": 26960,
  "glucuron": 16253,
  "glucuronidase": 26771,
  "glut": 5139,
  "glutamate": 20008,
  "glutaminase": 27357,
  "glutamine": 27970,
  "glutamyl": 19575,
  "gly": 11398,
  "glyc": 7217,
  "glycer": 8753,
  "glycerol": 11028,
  "glycine": 20378,
  "glycoprotein": 15255,
  "glycosylation": 26326,
  "gment": 10423,
  "gmental": 17783,
  "gn": 1859,
  "gnosis": 25894,
  "gnostic": 15372,
  "go": 2235,
  "going": 7118,
  "gold": 22858,
  "gone": 8550,
  "good": 26475,
  "goti": 23731,
  "gov": 17377,
  "gow": 21347,
  "gp": 12278,
  "gr": 1933,
  "gra": 1975,
  "grad": 6436,
  "gradation": 21552,
  "grade": 5054,
  "grading": 19888,
  "graduate": 12952,
  "graft": 14805,
  "grafted": 28278,
  "gram": 7304,
  "grams": 18770,
  "gran": 24250,
  "graph": 23336,
  "graphic": 23452,
  "graphy": 16138,
  "grass": 24242,
  "greater": 18324,
  "green": 22197,
  "greg": 28854,
  "gren": 20049,
  "gress": 21327,
  "gression": 17110,
  "gressive": 17270,
  "ground": 4631,
  "group": 2943,
  "groups": 17845,
  "growing": 24350,
  "grown": 23902,
  "growth": 11196,
  "gu": 4046,
  "guan": 17282,
  "guanine": 24338,
  "guanosine": 24240,
  "gue": 5427,
  "guided": 8688,
  "guinal": 14501,
  "gulation": 10357,
  "gulatory": 20998,
  "gus": 15225,
  "gut": 16518,
  "h": 71,
  "hCG": 21716,
  "ha": 1159,
  "hab": 10428,
  "habil": 4871,
  "habilitation": 5074,
  "haem": 18039,
  "hai": 20783,
  "hal": 4002,
  "haled": 19196,
  "half": 17025,
  "ham": 15927,
  "han": 17813,
  "hanced": 6850,
  "hancement": 22934,
  "hand": 14662,
  "handed": 20591,
  "hans": 19244,
  "haps": 11240,
  "har": 18090,
  "hard": 19774,
  "harm": 28257,
  "harmonic": 27639,
  "harv": 28446,
  "haus": 27922,
  "havi": 1326,
  "hazard": 12681,
  "he": 262,
  "hea": 7287,
  "head": 9982,
  "heal": 17579,
  "healing": 24343,
  "health": 12956,
  "healthy": 21433,
  "heart": 22482,
  "heast": 15837,
  "heastern": 17837,
  "heat": 23180,
  "hed": 916,
  "hedema": 25142,
  "hedral": 14789,
  "height": 27893,
  "heimer": 6095,
  "hel": 1468,
  "held": 21318,
  "heli": 18716,
  "helial": 8259,
  "helical": 19684,
  "helix": 16466,
  "hell": 7407,
  "helmin": 24842,
  "hem": 720,
  "hemagglutinin": 28666,
  "hemat": 25468,
  "hematic": 8973,
  "heme": 27808,
  "hemia": 27479,
  "hemisp": 22660,
  "hemispheric": 26349,
  "hemoglobin": 18480,
  "hen": 609,
  "hene": 6250,
  "henic": 15763,
  "henicol": 18412,
  "henium": 16296,
  "henol": 12532,
  "hentic": 18569,
  "henyl": 3635,
  "hep": 7572,
  "hepatic": 9429,
  "hepatitis": 22576,
  "hept": 19964,
  "her": 406,
  "herapy": 14849,
  "here": 4679,
  "hered": 21395,
  "herence": 8084,
  "herent": 7204,
  "heres": 6311,
  "heresis": 15332,
  "heric": 8230,
  "herical": 10177,
  "herin": 10881,
  "hering": 23426,
  "hern": 7275,
  "hers": 5068,
  "hertz": 27857,
  "hes": 941,
  "heses": 6821,
  "hesi": 2252,
  "hesia": 3997,
  "hesion": 16792,
  "hesis": 1311,
  "hesive": 17263,
  "hest": 2342,
  "hesus": 15531,
  "het": 8431,
  "hetamine": 9874,
  "heter": 17234,
  "hetic": 2268,
  "hetics": 13299,
  "hetized": 8647,
  "heum": 19049,
  "hex": 5764,
  "hexa": 21134,
  "hexane": 23937,
  "hexidine": 21857,
  "heximide": 20657,
  "hexyl": 20461,
  "hi": 16805,
  "hib": 681,
  "hibit": 786,
  "hibition": 1870,
  "hift": 25871,
  "high": 8866,
  "hing": 4866,
  "hip": 1330,
  "hippocampal": 28366,
  "hips": 17055,
  "his": 12812,
  "hist": 14008,
  "hl": 26321,
  "hn": 9625,
  "ho": 27829,
  "hog": 24427,
  "hol": 13536,
  "hold": 8780,
  "holder": 21508,
  "holders": 18267,
  "holds": 17281,
  "hole": 19265,
  "holinergic": 24355,
  "holm": 27346,
  "hom": 9989,
  "home": 24049,
  "homogene": 16532,
  "hood": 3272,
  "hormone": 28267,
  "horn": 28877,
  "hort": 2695,
  "hospital": 7418,
  "host": 14335,
  "hot": 26308,
  "hou": 20891,
  "hour": 8185,
  "house": 12646,
  "hr": 10938,
  "hs": 28399,
  "hu": 17240,
  "hum": 18658,
  "human": 10577,
  "hundred": 27448,
  "hus": 28410,
  "hy": 1027,
  "hybrid": 16833,
  "hyd": 7802,
  "hydr": 4337,
  "hydration": 12833,
  "hydraz": 16828,
  "hydro": 1750,
  "hydrogen": 5170,
  "hydrolase": 24706,
  "hydroph": 24703,
  "hydrox": 2880,
  "hydroxy": 3839,
  "hydroxybutyrate": 25561,
  "hydroxydopamine": 28088,
  "hydroxyl": 25927,
  "hydroxylase": 16677,
  "hydroxylation": 25932,
  "hydroxymethyl": 28131,
  "hydroxyp": 12519,
  "hydroxyphenyl": 19188,
  "hydroxysteroid": 27250,
  "hydroxytryptamine": 21022,
  "hydroxyvitamin": 23613,
  "hydryl": 21150,
  "hynchus": 28635,
  "hyp": 11608,
  "hyper": 6984,
  "hypertensive": 10270,
  "hyroid": 17724,
  "hysi": 12829,
  "hyth": 3643,
  "hythm": 5356,
  "hythmia": 12078,
  "hythmias": 9493,
  "hythmic": 10862,
  "hythms": 14993,
  "i": 72,
  "iNOS": 26056,
  "iO": 6277,
  "ia": 471,
  "iable": 8638,
  "iably": 28000,
  "iaceae": 17136,
  "iae": 6876,
  "ial": 440,
  "ially": 2196,
  "ials": 1637,
  "ialysis": 4166,
  "ian": 1208,
  "iana": 17776,
  "iang": 28752,
  "ians": 13540,
  "iant": 8175,
  "iar": 10831,
  "iary": 7388,
  "ias": 5602,
  "iasis": 6738,
  "iat": 1682,
  "iatal": 27882,
  "iate": 12060,
  "iated": 14594,
  "iation": 8309,
  "iative": 8792,
  "iators": 9333,
  "iatr": 15203,
  "iatric": 2203,
  "iatricians": 20428,
  "iatry": 28435,
  "iatum": 9907,
  "iatus": 24340,
  "iax": 16352,
  "iaxial": 25958,
  "iaz": 4405,
  "iazep": 8522,
  "iazepam": 15145,
  "iazol": 17296,
  "iazole": 18393,
  "ib": 409,
  "ibb": 23150,
  "ibbean": 26127,
  "ibenclamide": 25831,
  "iber": 13075,
  "ibern": 26741,
  "ibi": 27153,
  "ibility": 3602,
  "ible": 2162,
  "ibli": 21722,
  "ibly": 22253,
  "ibr": 3260,
  "ibrary": 17406,
  "ibration": 6889,
  "ibrio": 15591,
  "ic": 288,
  "ica": 8666,
  "icac": 11708,
  "icacy": 2075,
  "ical": 379,
  "ically": 1312,
  "icals": 19758,
  "ican": 13911,
  "icans": 11557,
  "icardi": 8325,
  "icardial": 10835,
  "icate": 17897,
  "icated": 23094,
  "ication": 1382,
  "ications": 21495,
  "ice": 1296,
  "iceal": 19478,
  "ices": 7502,
  "ich": 533,
  "ichi": 13094,
  "ichia": 4898,
  "ichlor": 10502,
  "ichloro": 22350,
  "ici": 809,
  "icial": 2924,
  "icially": 18266,
  "ician": 4463,
  "icians": 3014,
  "icidal": 11583,
  "icide": 13406,
  "icides": 18403,
  "iciencies": 9249,
  "iciency": 1788,
  "icient": 1668,
  "iciently": 5960,
  "icile": 17536,
  "icillin": 14472,
  "icin": 5035,
  "icine": 12805,
  "icious": 14256,
  "icit": 14830,
  "icitis": 15970,
  "icity": 1630,
  "ick": 1503,
  "icked": 17239,
  "icketts": 22805,
  "icking": 8715,
  "icl": 11187,
  "icle": 4661,
  "icles": 5511,
  "iclofenac": 18898,
  "iclovir": 22942,
  "ico": 8721,
  "icochemical": 12283,
  "icola": 21519,
  "icrob": 4588,
  "icrobial": 5220,
  "icrobials": 21517,
  "ics": 3514,
  "ict": 5305,
  "ictal": 26033,
  "iction": 7095,
  "ictor": 15071,
  "icul": 14519,
  "icular": 5881,
  "icum": 24521,
  "icus": 26331,
  "icylic": 23517,
  "id": 312,
  "ida": 10879,
  "idae": 7061,
  "idal": 4869,
  "idase": 6274,
  "idases": 27824,
  "idate": 18395,
  "idated": 20832,
  "idation": 9706,
  "idative": 17653,
  "idazole": 12193,
  "idden": 17085,
  "ide": 543,
  "ided": 4680,
  "idel": 15331,
  "idelity": 18690,
  "iden": 24860,
  "idence": 949,
  "idences": 16347,
  "idene": 17244,
  "ident": 3722,
  "idental": 11021,
  "identate": 28247,
  "identif": 12994,
  "identified": 14640,
  "idents": 9543,
  "ideo": 24501,
  "ider": 9975,
  "iders": 28402,
  "ides": 1828,
  "idespread": 7765,
  "idge": 14431,
  "idges": 24369,
  "idi": 8520,
  "idia": 14795,
  "idial": 27047,
  "idian": 23720,
  "idic": 11006,
  "idin": 6326,
  "idine": 2823,
  "idines": 22685,
  "iding": 11153,
  "idinium": 18079,
  "idinyl": 26134,
  "idirectional": 15783,
  "idis": 17635,
  "idity": 2309,
  "idium": 8194,
  "idne": 2485,
  "idney": 15156,
  "ido": 11445,
  "idol": 11388,
  "idomide": 19510,
  "idone": 11846,
  "idopsis": 10806,
  "idovudine": 28016,
  "ids": 4014,
  "idum": 27980,
  "idus": 19185,
  "idyl": 14755,
  "idym": 12756,
  "ie": 1137,
  "ied": 687,
  "ief": 13604,
  "iel": 1233,
  "ield": 1291,
  "ielding": 11062,
  "ien": 22409,
  "ience": 6808,
  "ienced": 25236,
  "iences": 26786,
  "iens": 17737,
  "iensis": 20432,
  "ient": 2244,
  "ients": 3954,
  "ier": 3513,
  "ierarch": 9272,
  "ierarchical": 28890,
  "iers": 13437,
  "ies": 499,
  "iesis": 12409,
  "iet": 21146,
  "ietic": 6506,
  "ieties": 14368,
  "ietin": 12282,
  "iety": 3385,
  "ieu": 21670,
  "if": 336,
  "ife": 1526,
  "ifentanil": 25405,
  "ifer": 6265,
  "ifera": 19140,
  "iferous": 21102,
  "ifers": 15796,
  "ifery": 28085,
  "ifest": 3623,
  "iff": 484,
  "ifferen": 3677,
  "ifferenti": 8579,
  "ifferentiated": 10885,
  "ifferentiation": 17725,
  "ific": 435,
  "ifically": 4097,
  "ification": 1562,
  "ifications": 5373,
  "ified": 1308,
  "ifier": 13940,
  "ifiers": 20937,
  "ifies": 16304,
  "iflex": 27685,
  "ifluor": 11875,
  "ifolia": 23357,
  "iform": 4406,
  "iformis": 20753,
  "iforn": 11479,
  "ifornia": 12396,
  "ift": 9265,
  "ifug": 9953,
  "ify": 2942,
  "ifying": 6221,
  "ig": 327,
  "igan": 22749,
  "igaret": 8025,
  "igarette": 27060,
  "igen": 6645,
  "igenic": 14374,
  "igenin": 23445,
  "igenous": 14234,
  "iger": 11928,
  "igh": 437,
  "ighed": 19914,
  "igher": 10429,
  "ight": 615,
  "ighted": 5167,
  "ighteen": 12911,
  "ighter": 23600,
  "ights": 3331,
  "igibility": 20859,
  "igible": 6501,
  "iginal": 18827,
  "iglitazone": 26372,
  "igm": 6961,
  "igma": 10734,
  "igmoid": 14349,
  "ign": 432,
  "ignant": 11619,
  "igned": 15368,
  "ignific": 4541,
  "ignificance": 24127,
  "ignificant": 4734,
  "ignment": 18802,
  "igration": 18764,
  "igs": 23664,
  "iguous": 14534,
  "ii": 3502,
  "iii": 11121,
  "ij": 15503,
  "ijing": 20925,
  "ik": 5118,
  "ikacin": 25954,
  "ike": 20982,
  "il": 333,
  "ila": 22784,
  "ilance": 19939,
  "ilar": 1173,
  "ilarly": 6018,
  "ilate": 28603,
  "ilateral": 4532,
  "ilation": 16527,
  "ild": 781,
  "ildenafil": 21675,
  "ilding": 22419,
  "ile": 852,
  "iled": 16368,
  "ilep": 4054,
  "ilept": 23505,
  "iles": 13804,
  "iley": 15726,
  "ili": 3800,
  "ilia": 17339,
  "iliac": 10310,
  "iliary": 8741,
  "iliated": 15915,
  "iliation": 24299,
  "ilib": 5737,
  "ilibr": 21109,
  "ilibration": 27746,
  "ilibrium": 6033,
  "ilic": 2662,
  "ilica": 23217,
  "ilical": 9144,
  "ilience": 17079,
  "iliensis": 27561,
  "ilin": 20114,
  "iline": 20463,
  "iling": 16496,
  "ilirubin": 28454,
  "ilis": 10580,
  "ilities": 5866,
  "ility": 641,
  "ilization": 8323,
  "ilized": 12757,
  "ilk": 25799,
  "ill": 636,
  "illa": 11385,
  "illance": 5855,
  "illar": 11625,
  "illary": 2989,
  "illation": 6145,
  "illator": 21338,
  "ille": 16003,
  "illectomy": 20853,
  "illed": 5173,
  "iller": 9697,
  "illes": 19676,
  "illi": 9259,
  "illin": 5317,
  "illing": 5826,
  "ills": 4843,
  "illus": 5101,
  "ilol": 27026,
  "iloride": 22846,
  "ils": 3156,
  "ilson": 26944,
  "ilst": 12578,
  "ilt": 19601,
  "ilum": 13530,
  "iluminescence": 16784,
  "ily": 1248,
  "im": 318,
  "ima": 18201,
  "imab": 15732,
  "image": 27203,
  "imaging": 12149,
  "imal": 10741,
  "imally": 27599,
  "imals": 14454,
  "imate": 28155,
  "imb": 9851,
  "imbine": 27540,
  "ime": 4644,
  "imen": 4465,
  "imens": 2928,
  "imension": 2389,
  "imensional": 3150,
  "iment": 4370,
  "imental": 7823,
  "imentary": 22367,
  "imentin": 16011,
  "iments": 7619,
  "imer": 3377,
  "imeric": 10940,
  "imers": 22240,
  "imes": 12767,
  "imeter": 14618,
  "imeters": 25621,
  "imethyl": 5226,
  "imetic": 16157,
  "imetidine": 19937,
  "imetric": 9262,
  "imetry": 7980,
  "imid": 8916,
  "imidazol": 22456,
  "imidazole": 18165,
  "imide": 12985,
  "imidine": 14169,
  "imilar": 19008,
  "imin": 1808,
  "iminary": 5352,
  "imination": 26821,
  "imine": 17580,
  "immun": 3268,
  "immune": 5348,
  "immunity": 16582,
  "immuno": 11008,
  "immunoassay": 12236,
  "immunoreactive": 18049,
  "imod": 27825,
  "imolar": 23573,
  "imotor": 17666,
  "imp": 27650,
  "implant": 15524,
  "implantation": 15786,
  "imum": 21199,
  "imumab": 22228,
  "imurium": 15241,
  "imus": 8921,
  "in": 256,
  "ina": 3174,
  "inae": 21222,
  "inal": 867,
  "inally": 3418,
  "inamide": 19241,
  "inance": 10279,
  "inant": 2869,
  "inar": 16294,
  "inary": 2251,
  "inase": 7689,
  "inatal": 28305,
  "inate": 7097,
  "inated": 3852,
  "inates": 13720,
  "inating": 10861,
  "ination": 3485,
  "inator": 25425,
  "inc": 1805,
  "ince": 2310,
  "inces": 21931,
  "incial": 26346,
  "including": 10223,
  "income": 14535,
  "inct": 22644,
  "incter": 10796,
  "incubated": 25269,
  "incubation": 15651,
  "ind": 1249,
  "indamycin": 24911,
  "independent": 7300,
  "inder": 14085,
  "index": 19460,
  "indic": 28373,
  "inding": 794,
  "individual": 15422,
  "indole": 18317,
  "induc": 13074,
  "induced": 1309,
  "inducible": 14733,
  "inducing": 15563,
  "ine": 383,
  "inea": 6322,
  "ineal": 10309,
  "inear": 12798,
  "ined": 1932,
  "inel": 13525,
  "inement": 13651,
  "inephrine": 12054,
  "ineral": 17831,
  "inery": 14666,
  "ines": 1079,
  "inescence": 8503,
  "inescent": 15612,
  "inese": 4502,
  "iness": 6574,
  "inesterase": 11302,
  "inetic": 11793,
  "inetics": 23905,
  "ineural": 17051,
  "ineurin": 22542,
  "inf": 1853,
  "infected": 5283,
  "infection": 9759,
  "infectious": 24035,
  "inferior": 21261,
  "infil": 28343,
  "inflammation": 20694,
  "inflammatory": 4091,
  "infor": 26329,
  "inform": 14263,
  "informatics": 18319,
  "infrared": 14757,
  "infusion": 26896,
  "ing": 293,
  "inge": 11711,
  "inger": 6083,
  "ingle": 1280,
  "ingly": 6045,
  "ings": 3543,
  "ingual": 23240,
  "inhibit": 11079,
  "inhibition": 21713,
  "inhibitor": 25773,
  "inhibitory": 21791,
  "ini": 14494,
  "inia": 17700,
  "inic": 2722,
  "inical": 710,
  "inin": 8161,
  "inine": 3885,
  "ining": 11794,
  "inis": 18878,
  "inite": 16531,
  "initi": 15456,
  "initiated": 25415,
  "inities": 14417,
  "initis": 25635,
  "inity": 2984,
  "injected": 17747,
  "injection": 12693,
  "injured": 24740,
  "injury": 17395,
  "ink": 1455,
  "inkage": 15775,
  "inking": 5162,
  "inn": 9733,
  "inning": 25793,
  "ino": 11367,
  "inoc": 19775,
  "inol": 20613,
  "inone": 24245,
  "inosa": 8743,
  "inosis": 25904,
  "inositol": 10895,
  "inotecan": 24801,
  "inous": 11193,
  "inqu": 28570,
  "ins": 1254,
  "insensitive": 23790,
  "insic": 5860,
  "insically": 24640,
  "inson": 6010,
  "instit": 19860,
  "institutional": 24481,
  "insulin": 9496,
  "int": 1302,
  "inted": 12890,
  "integr": 11916,
  "intensity": 12249,
  "inter": 4251,
  "interacting": 26668,
  "interferon": 22317,
  "interpre": 23699,
  "interquartile": 18584,
  "intervention": 13759,
  "intestinal": 4557,
  "inting": 13841,
  "intr": 27400,
  "intra": 28234,
  "ints": 2937,
  "inum": 14710,
  "inus": 3925,
  "invasive": 5676,
  "inyl": 8447,
  "io": 2481,
  "iod": 1051,
  "iodarone": 18833,
  "iode": 24624,
  "iodine": 21669,
  "iodo": 26072,
  "iodothyronine": 21144,
  "iol": 7245,
  "iolitis": 22675,
  "iomy": 13593,
  "ion": 459,
  "ional": 7294,
  "ionate": 15050,
  "ione": 4492,
  "ionic": 5994,
  "ionine": 9111,
  "ionization": 21089,
  "ions": 1065,
  "ionyl": 26423,
  "iop": 14750,
  "ior": 1228,
  "iosis": 12160,
  "iotic": 3573,
  "iotics": 4795,
  "ious": 2593,
  "ip": 451,
  "ipal": 12789,
  "iparous": 19611,
  "iparum": 13585,
  "ipe": 25703,
  "ipenem": 22710,
  "iper": 22325,
  "iph": 7960,
  "iphatic": 19865,
  "iphenyl": 17914,
  "ipher": 2407,
  "ipheral": 13454,
  "ipient": 24175,
  "ipients": 25726,
  "ipine": 9497,
  "ipital": 12651,
  "ipl": 5329,
  "iplatin": 21733,
  "iple": 14174,
  "iples": 7079,
  "iplinary": 7648,
  "ipolar": 16832,
  "ipp": 27769,
  "ipping": 16205,
  "ipramine": 15007,
  "ipro": 9741,
  "iprofloxacin": 14228,
  "ips": 5479,
  "ipt": 10484,
  "iptan": 25720,
  "iptera": 19777,
  "iptine": 25179,
  "iptyline": 22916,
  "iqu": 15709,
  "ique": 3644,
  "ir": 372,
  "ira": 8219,
  "irable": 10545,
  "iral": 3473,
  "iram": 25004,
  "iration": 9875,
  "iratory": 2480,
  "irc": 6410,
  "ircon": 17709,
  "irculation": 13947,
  "irculatory": 27262,
  "ird": 3127,
  "irds": 12468,
  "ire": 4565,
  "ired": 2664,
  "ireless": 25841,
  "ires": 9601,
  "iring": 4861,
  "irium": 15815,
  "irm": 11047,
  "irmed": 22179,
  "iro": 15493,
  "iron": 1378,
  "irradi": 12023,
  "irradiated": 17752,
  "irradiation": 18148,
  "irrel": 27478,
  "irrh": 26671,
  "irs": 16139,
  "irsch": 25970,
  "irst": 1021,
  "irt": 22424,
  "irteen": 11961,
  "irth": 11304,
  "irty": 4819,
  "irubin": 10689,
  "irudin": 27612,
  "irus": 2896,
  "iry": 8506,
  "is": 282,
  "isation": 4150,
  "isations": 20111,
  "isc": 3632,
  "iscal": 17568,
  "ischemic": 16867,
  "ischer": 21081,
  "isconsin": 24994,
  "iscus": 14280,
  "ise": 1110,
  "isease": 23773,
  "ised": 1912,
  "isen": 19649,
  "ises": 4983,
  "ish": 1327,
  "ishable": 17864,
  "ished": 1476,
  "isher": 12361,
  "ishes": 9370,
  "ishing": 10882,
  "ishman": 10162,
  "ishmania": 15079,
  "ishment": 15491,
  "isia": 22238,
  "isin": 19945,
  "ising": 2348,
  "ision": 1771,
  "isions": 5991,
  "isis": 11124,
  "isite": 14338,
  "isition": 6862,
  "isive": 24836,
  "isk": 819,
  "ism": 943,
  "isms": 1410,
  "ismus": 21192,
  "ismuth": 24755,
  "iso": 18892,
  "isole": 23181,
  "isomer": 24290,
  "ison": 1822,
  "isons": 6648,
  "isopropyl": 18299,
  "isp": 4921,
  "ispan": 27611,
  "ispanic": 13450,
  "ispanics": 28335,
  "isper": 14515,
  "isperidone": 20686,
  "isphenol": 24040,
  "iss": 929,
  "isser": 21796,
  "isseria": 23347,
  "ission": 1504,
  "isson": 17683,
  "issue": 11702,
  "ist": 515,
  "istal": 19994,
  "istan": 17595,
  "istance": 9955,
  "istant": 20521,
  "istar": 8617,
  "isted": 2677,
  "istein": 18366,
  "istence": 13331,
  "istent": 7290,
  "ister": 6295,
  "istered": 2545,
  "isteria": 17364,
  "istering": 16974,
  "isters": 18709,
  "istic": 2356,
  "istically": 13196,
  "istics": 13751,
  "istin": 25395,
  "istine": 15409,
  "isting": 6993,
  "istingu": 16403,
  "istinguishable": 18175,
  "istos": 13143,
  "istosoma": 21644,
  "istr": 1178,
  "istration": 1753,
  "istrib": 8542,
  "istribution": 9366,
  "istries": 17060,
  "istry": 2934,
  "ists": 1700,
  "isual": 10924,
  "isure": 21413,
  "isy": 28672,
  "it": 283,
  "ita": 13995,
  "itability": 12191,
  "itabine": 22018,
  "itable": 4172,
  "ital": 2017,
  "italopram": 23478,
  "itamin": 12004,
  "itan": 14459,
  "itance": 11616,
  "itans": 27388,
  "itant": 5434,
  "itants": 18824,
  "itary": 3440,
  "itate": 13988,
  "itated": 9789,
  "itates": 17699,
  "itating": 12784,
  "itation": 2010,
  "itations": 22813,
  "itative": 4678,
  "itch": 10331,
  "ite": 808,
  "iteal": 17121,
  "itect": 7402,
  "ited": 1345,
  "item": 12957,
  "iter": 1239,
  "iteria": 18919,
  "iterp": 17066,
  "iterpen": 20404,
  "iterpene": 23002,
  "iterranean": 14112,
  "ites": 1401,
  "ith": 316,
  "ither": 1447,
  "itherto": 22084,
  "ithi": 15517,
  "ithiasis": 14598,
  "ithin": 21001,
  "ithine": 17824,
  "ithromycin": 14828,
  "iti": 577,
  "itic": 8012,
  "itidine": 23076,
  "itidis": 20051,
  "ities": 930,
  "itig": 10960,
  "itiligo": 24543,
  "itim": 27436,
  "itin": 8583,
  "itinase": 26614,
  "iting": 4047,
  "itinib": 16023,
  "ition": 793,
  "itions": 4547,
  "itis": 1301,
  "itism": 28487,
  "itive": 1077,
  "itives": 22117,
  "itivity": 9672,
  "itized": 19134,
  "itness": 16358,
  "itney": 18529,
  "itol": 6194,
  "iton": 10493,
  "itone": 3505,
  "itoneal": 4179,
  "itoneum": 17517,
  "itonitis": 13901,
  "itor": 6958,
  "itoring": 14796,
  "itors": 11902,
  "itosan": 9790,
  "itr": 4241,
  "itrate": 8815,
  "itre": 27770,
  "itreal": 18284,
  "itrite": 19991,
  "itro": 25447,
  "itron": 11370,
  "itrop": 24623,
  "its": 1150,
  "itt": 17520,
  "itter": 13638,
  "itting": 7504,
  "ittle": 12675,
  "itu": 2074,
  "itual": 28417,
  "ituation": 23177,
  "itud": 4183,
  "itude": 3316,
  "itudes": 11384,
  "itudinal": 5131,
  "itudinally": 23549,
  "ituit": 27492,
  "ituitary": 5810,
  "itum": 14427,
  "ituric": 25116,
  "itus": 4830,
  "ituximab": 15291,
  "ity": 354,
  "itz": 26214,
  "ium": 769,
  "ius": 14108,
  "iv": 492,
  "ivac": 11584,
  "ivacaine": 12084,
  "ival": 1196,
  "ivalence": 24745,
  "ivalent": 5238,
  "ivariate": 8038,
  "ivary": 24742,
  "ivation": 9264,
  "ive": 963,
  "ived": 1125,
  "iven": 1879,
  "iveness": 17387,
  "iventricular": 25971,
  "iver": 1508,
  "ivered": 6863,
  "ivers": 3944,
  "iversity": 16163,
  "ivery": 18396,
  "ives": 4987,
  "ivial": 26472,
  "iving": 1882,
  "ivir": 25274,
  "ivirus": 24575,
  "ivity": 19886,
  "ivo": 1888,
  "ivocal": 18495,
  "ivudine": 22101,
  "ix": 1001,
  "ixation": 23498,
  "ixed": 9537,
  "iximab": 15836,
  "ixing": 28250,
  "iz": 427,
  "izability": 23162,
  "izable": 14065,
  "ization": 766,
  "izations": 5758,
  "ize": 1158,
  "ized": 732,
  "izer": 11191,
  "izers": 15062,
  "izes": 3640,
  "izine": 25364,
  "izing": 2347,
  "izumab": 10041,
  "izz": 17225,
  "izziness": 21712,
  "j": 73,
  "ja": 23288,
  "jac": 14866,
  "je": 15597,
  "jec": 777,
  "ject": 10053,
  "jected": 12235,
  "jection": 3609,
  "jections": 22000,
  "jective": 12661,
  "jects": 26602,
  "jet": 27837,
  "ji": 14533,
  "jiang": 24898,
  "jor": 1314,
  "joy": 23707,
  "ju": 15451,
  "juana": 21573,
  "jug": 8931,
  "jugated": 14397,
  "jun": 8184,
  "junction": 25035,
  "junctiv": 20135,
  "junctival": 28737,
  "jured": 19345,
  "jury": 10615,
  "juvant": 11300,
  "k": 74,
  "kB": 22192,
  "kDa": 9489,
  "ka": 17271,
  "kal": 14443,
  "kappa": 6683,
  "kappaB": 8197,
  "kary": 14223,
  "kb": 17789,
  "ke": 828,
  "ked": 7676,
  "keeping": 28118,
  "kele": 3788,
  "kelet": 8291,
  "keletal": 3807,
  "keleton": 9082,
  "ken": 15852,
  "kephal": 14453,
  "kephalin": 15566,
  "ker": 10470,
  "kes": 15920,
  "ket": 8361,
  "keto": 17056,
  "key": 10105,
  "keys": 24850,
  "kg": 1789,
  "ki": 19695,
  "kin": 1426,
  "kinase": 9395,
  "kines": 15108,
  "kinesia": 18384,
  "kinetic": 17705,
  "king": 3613,
  "kinin": 11630,
  "kinje": 17227,
  "kins": 27714,
  "kinson": 15940,
  "kit": 21740,
  "kle": 7359,
  "kling": 18075,
  "kn": 28824,
  "know": 3275,
  "known": 3483,
  "ko": 28466,
  "ks": 7428,
  "kt": 8442,
  "ky": 16559,
  "kyl": 15041,
  "l": 75,
  "la": 12428,
  "lab": 4322,
  "label": 13060,
  "labeled": 7264,
  "labeling": 24085,
  "labelled": 14247,
  "lable": 17505,
  "laboratory": 26974,
  "lac": 16693,
  "lact": 7613,
  "lactam": 11809,
  "lactamase": 17637,
  "lactate": 26415,
  "lactic": 23220,
  "lactide": 27213,
  "lam": 9583,
  "lambda": 26581,
  "lamm": 1471,
  "lammation": 15214,
  "lammatory": 3863,
  "lamp": 9103,
  "lamy": 11284,
  "lamydia": 15715,
  "land": 3309,
  "lands": 8144,
  "language": 22237,
  "las": 1164,
  "lase": 13986,
  "lases": 28098,
  "lasgow": 21469,
  "lass": 12752,
  "last": 2189,
  "lastic": 4689,
  "lasting": 14819,
  "lasts": 3902,
  "lat": 16399,
  "late": 20138,
  "lateral": 21614,
  "lation": 2713,
  "lav": 17185,
  "lay": 18501,
  "layer": 11064,
  "ld": 3273,
  "le": 295,
  "lea": 16652,
  "lead": 22652,
  "leading": 24718,
  "lear": 4019,
  "learning": 23942,
  "leason": 19315,
  "leb": 9125,
  "lebrand": 18483,
  "lebsiella": 17205,
  "lec": 472,
  "lected": 18910,
  "lection": 11727,
  "lective": 5127,
  "lectively": 15956,
  "lectomy": 11045,
  "led": 1030,
  "ledge": 2447,
  "lee": 18763,
  "leep": 3011,
  "left": 18085,
  "leg": 14340,
  "lege": 8629,
  "legia": 21877,
  "lel": 4777,
  "lem": 13457,
  "lemm": 27537,
  "lemma": 20125,
  "len": 21570,
  "length": 10346,
  "lep": 13040,
  "ler": 1987,
  "lerene": 24276,
  "lers": 17539,
  "les": 942,
  "lesion": 21821,
  "less": 3539,
  "lessness": 23777,
  "let": 1968,
  "leted": 15473,
  "letes": 9164,
  "lethal": 19035,
  "letion": 14116,
  "lets": 4136,
  "leu": 4619,
  "leucine": 21893,
  "leuk": 15191,
  "leukin": 4677,
  "level": 5478,
  "lex": 2198,
  "ley": 6177,
  "li": 1258,
  "lic": 918,
  "lication": 22181,
  "lice": 20916,
  "lich": 20262,
  "lick": 25930,
  "licted": 25691,
  "lier": 22059,
  "lif": 7144,
  "life": 6316,
  "liferation": 21098,
  "liferative": 8954,
  "lig": 7466,
  "ligand": 17954,
  "light": 10184,
  "ligo": 22845,
  "like": 1976,
  "lim": 6175,
  "limb": 13249,
  "limited": 14562,
  "limiting": 13628,
  "lin": 8334,
  "line": 1793,
  "linear": 6267,
  "lines": 22375,
  "ling": 1849,
  "lings": 8319,
  "lingual": 22026,
  "lining": 26510,
  "link": 3818,
  "linked": 5086,
  "linking": 10590,
  "links": 23929,
  "lioma": 12354,
  "liomas": 25446,
  "lip": 5023,
  "lipid": 8798,
  "lipidemia": 12405,
  "lipoprotein": 28611,
  "lipoxygenase": 28396,
  "liptin": 25804,
  "liquid": 13702,
  "lished": 3757,
  "list": 12539,
  "lit": 7400,
  "litaxel": 10834,
  "litazone": 17778,
  "liter": 11992,
  "lithiasis": 21532,
  "lived": 19129,
  "liver": 23041,
  "lives": 24704,
  "living": 20796,
  "ll": 7842,
  "lla": 17762,
  "ller": 17455,
  "lo": 6232,
  "load": 6640,
  "loaded": 11276,
  "loading": 19938,
  "lob": 2766,
  "lobal": 12632,
  "lobulin": 27706,
  "local": 15874,
  "localized": 26416,
  "location": 27793,
  "lock": 15578,
  "locked": 26217,
  "lodipine": 24984,
  "lofen": 21390,
  "log": 3032,
  "logic": 26841,
  "logical": 16547,
  "lon": 27692,
  "long": 10752,
  "look": 24959,
  "loop": 15638,
  "lop": 25077,
  "lor": 1748,
  "lora": 17266,
  "lore": 24142,
  "los": 28596,
  "loss": 18373,
  "lot": 9445,
  "low": 559,
  "lower": 21232,
  "lowering": 16612,
  "loxacin": 17649,
  "ls": 5409,
  "ltr": 7987,
  "ltras": 9772,
  "lu": 652,
  "lue": 5611,
  "luent": 10652,
  "luents": 23845,
  "lung": 21060,
  "luor": 7524,
  "luores": 5722,
  "luorescence": 6817,
  "luorescent": 16244,
  "lution": 7140,
  "lux": 5362,
  "ly": 305,
  "lyb": 22242,
  "lyc": 1534,
  "lyce": 6550,
  "lycemia": 8440,
  "lycemic": 12782,
  "lycer": 4238,
  "lying": 2553,
  "lyl": 9667,
  "lym": 869,
  "lymer": 6207,
  "lymp": 23152,
  "lymph": 1273,
  "lymphocyte": 17962,
  "lymphocytes": 20575,
  "lys": 13187,
  "lysin": 26615,
  "lysine": 16793,
  "lysis": 10761,
  "lytic": 14053,
  "m": 76,
  "mL": 4022,
  "mM": 20311,
  "mRNA": 16757,
  "mTOR": 22211,
  "mTc": 13827,
  "ma": 870,
  "mac": 11365,
  "macro": 27747,
  "macroph": 15068,
  "macrophage": 18348,
  "made": 20370,
  "main": 18200,
  "mainly": 25848,
  "making": 9803,
  "mal": 2130,
  "male": 14770,
  "maleimide": 28505,
  "malignant": 16370,
  "man": 2533,
  "management": 17277,
  "mandibular": 19616,
  "mann": 9045,
  "mar": 23842,
  "mark": 6087,
  "marks": 14554,
  "mass": 10343,
  "mat": 2750,
  "matched": 7285,
  "matic": 6169,
  "matrix": 24452,
  "mature": 23730,
  "maturity": 17751,
  "max": 5243,
  "maximal": 14375,
  "maximum": 22209,
  "maze": 28778,
  "mb": 27069,
  "mber": 10637,
  "me": 1614,
  "mean": 3616,
  "meas": 15313,
  "measured": 19955,
  "mectin": 25285,
  "med": 1026,
  "medetomidine": 24284,
  "medi": 1522,
  "media": 18846,
  "median": 7382,
  "mediate": 3117,
  "mediated": 2838,
  "mediately": 5456,
  "mediation": 22785,
  "medical": 21745,
  "medication": 22095,
  "medicine": 21317,
  "mega": 11964,
  "mel": 24693,
  "membered": 22511,
  "membrane": 18921,
  "men": 14823,
  "mend": 18136,
  "mendations": 19401,
  "menopausal": 23652,
  "ment": 389,
  "mental": 3780,
  "mentation": 3838,
  "mented": 6698,
  "mention": 17524,
  "mentioned": 17609,
  "ments": 861,
  "mer": 12668,
  "merc": 14945,
  "mercury": 28767,
  "mers": 25816,
  "mes": 8004,
  "mesenchymal": 22886,
  "met": 3336,
  "metabol": 23637,
  "metal": 14668,
  "metastatic": 24156,
  "meter": 22269,
  "meth": 5976,
  "methionine": 18345,
  "method": 28598,
  "methoxy": 13902,
  "methrin": 28097,
  "methyl": 3329,
  "methylated": 26086,
  "methylation": 20091,
  "methylene": 26037,
  "metic": 11102,
  "metry": 6650,
  "mg": 5231,
  "mi": 10725,
  "miR": 18402,
  "miRNAs": 26038,
  "mia": 2958,
  "mic": 2025,
  "micro": 10943,
  "microg": 25969,
  "microglobulin": 24698,
  "microl": 26414,
  "microm": 20162,
  "mid": 15076,
  "mig": 28165,
  "mill": 12346,
  "mim": 28207,
  "min": 563,
  "minal": 3083,
  "mine": 1564,
  "ming": 7089,
  "ministration": 7377,
  "mino": 18735,
  "minute": 13231,
  "mis": 17129,
  "miss": 26712,
  "mission": 2165,
  "missions": 27068,
  "mit": 1877,
  "mitoyl": 26218,
  "mitted": 3334,
  "mitter": 10873,
  "mitters": 18383,
  "mitting": 21407,
  "mium": 8949,
  "mix": 18188,
  "mixed": 23979,
  "ml": 2810,
  "mm": 5605,
  "mmol": 28350,
  "mo": 9666,
  "mobil": 19249,
  "mobilized": 28427,
  "mod": 3229,
  "mode": 13641,
  "model": 24115,
  "moderate": 18138,
  "modified": 9748,
  "modifying": 23984,
  "modulated": 21527,
  "modulin": 12434,
  "mol": 4645,
  "molality": 19564,
  "molecular": 9475,
  "molecule": 17002,
  "mon": 795,
  "monary": 1946,
  "monella": 7932,
  "monic": 10133,
  "monitoring": 25135,
  "monophosphate": 28414,
  "month": 4598,
  "months": 19228,
  "mor": 20755,
  "morbid": 21358,
  "more": 2413,
  "morph": 16110,
  "mortem": 19090,
  "mosp": 8010,
  "most": 3620,
  "motor": 18785,
  "mouse": 23072,
  "mouth": 24713,
  "mp": 17980,
  "ms": 699,
  "mselves": 9117,
  "mu": 12164,
  "muir": 20930,
  "mul": 16992,
  "mun": 663,
  "mur": 26620,
  "mus": 9148,
  "muscle": 20288,
  "mut": 7685,
  "my": 10295,
  "myc": 14308,
  "myel": 28506,
  "myrist": 26539,
  "n": 77,
  "nRH": 9041,
  "na": 7069,
  "nai": 2818,
  "naive": 24365,
  "nal": 1014,
  "nals": 15532,
  "nam": 16770,
  "nan": 16323,
  "naphth": 17829,
  "nar": 13502,
  "nary": 12189,
  "nasal": 28790,
  "nat": 7105,
  "natal": 4859,
  "natally": 20159,
  "native": 28789,
  "natural": 22526,
  "naÃ¯ve": 27070,
  "nc": 14377,
  "nd": 13050,
  "ne": 823,
  "nea": 7128,
  "neal": 21389,
  "nec": 9861,
  "ned": 7941,
  "nee": 15876,
  "needle": 19069,
  "negative": 4752,
  "nel": 6526,
  "neoplastic": 18215,
  "ner": 2128,
  "ners": 6424,
  "nes": 9558,
  "nesota": 23622,
  "ness": 1257,
  "net": 19237,
  "netium": 22254,
  "neu": 20477,
  "neum": 3112,
  "neumonia": 26129,
  "neuro": 13851,
  "neurys": 28371,
  "neutral": 22984,
  "new": 25218,
  "nex": 13601,
  "nexin": 12451,
  "nexpected": 23828,
  "ney": 11937,
  "ng": 16962,
  "ni": 937,
  "nia": 6430,
  "nial": 26685,
  "nic": 6204,
  "nicity": 25684,
  "night": 13668,
  "nii": 22314,
  "nine": 8524,
  "ning": 1716,
  "niotic": 27488,
  "nis": 7907,
  "nit": 4399,
  "nitine": 13345,
  "nitro": 12080,
  "nitrop": 18193,
  "nitrophenyl": 24584,
  "nitros": 12175,
  "nitroso": 22537,
  "nitus": 16287,
  "nity": 17023,
  "nm": 13037,
  "no": 7746,
  "nock": 19818,
  "noea": 17540,
  "noid": 11737,
  "noise": 14860,
  "non": 8279,
  "nor": 19884,
  "norm": 16174,
  "normal": 2036,
  "normally": 19213,
  "not": 14189,
  "nourished": 21044,
  "nov": 24200,
  "now": 1089,
  "nowledge": 13175,
  "ns": 3529,
  "nsic": 11755,
  "nson": 27974,
  "nt": 9183,
  "nu": 27817,
  "nucle": 14206,
  "nuclear": 21968,
  "nucleotide": 17838,
  "null": 22358,
  "number": 23233,
  "nut": 27425,
  "nutrition": 10837,
  "o": 78,
  "oL": 8979,
  "oacetate": 24932,
  "oacetic": 28600,
  "oactive": 11570,
  "oad": 2044,
  "oaden": 27086,
  "oadjuvant": 13208,
  "oal": 10710,
  "oalveolar": 15064,
  "oarth": 8225,
  "oarthritis": 9365,
  "oate": 13785,
  "ob": 693,
  "oba": 25714,
  "obac": 27319,
  "obacco": 23973,
  "obacillus": 12265,
  "obacter": 3356,
  "obacteria": 10235,
  "obacterial": 13837,
  "obacterium": 7580,
  "obarb": 10415,
  "obarbital": 12637,
  "obarbituric": 26564,
  "obaric": 26011,
  "obe": 24184,
  "obenz": 10458,
  "obenzene": 19080,
  "ober": 8786,
  "obese": 15845,
  "obesity": 26810,
  "obi": 10513,
  "obia": 16120,
  "obic": 3683,
  "obil": 5524,
  "obile": 21013,
  "obiliary": 21037,
  "obility": 16627,
  "obiology": 28470,
  "obium": 18413,
  "obl": 27020,
  "oblast": 5176,
  "oblastic": 8652,
  "oblastoma": 8862,
  "oblastomas": 23760,
  "oblasts": 9078,
  "oblot": 11359,
  "obox": 28849,
  "obronchial": 20173,
  "obser": 10851,
  "observer": 12473,
  "obut": 8771,
  "obutamine": 20163,
  "obutyl": 25279,
  "obutyric": 17092,
  "oc": 347,
  "oca": 21819,
  "ocaine": 5932,
  "ocal": 3052,
  "ocalcin": 19043,
  "ocalization": 12141,
  "ocalized": 21760,
  "ocally": 25515,
  "ocap": 19639,
  "ocar": 19829,
  "ocarb": 17361,
  "ocarcin": 4690,
  "ocarcinoma": 5481,
  "ocarcinomas": 14708,
  "ocardi": 1848,
  "ocardial": 9766,
  "ocardiography": 22951,
  "ocarditis": 12953,
  "ocarpine": 26183,
  "ocatal": 9447,
  "ocatalytic": 26107,
  "ocated": 8639,
  "ocation": 4499,
  "ocations": 14393,
  "occ": 2488,
  "occer": 23838,
  "occipital": 26797,
  "occlusion": 18426,
  "occup": 23483,
  "occus": 27888,
  "oce": 12674,
  "ocele": 14047,
  "ocell": 26103,
  "ocellular": 6622,
  "ocene": 20815,
  "ocent": 17880,
  "ocentesis": 22903,
  "ocerc": 27839,
  "och": 1459,
  "ochastic": 14279,
  "oche": 26893,
  "ochem": 1715,
  "ochemical": 2276,
  "ochemically": 11011,
  "ochemistry": 4568,
  "ochlor": 13894,
  "ocholine": 25674,
  "ochond": 2658,
  "ochondrial": 14984,
  "ochrom": 8785,
  "ochromatic": 28728,
  "ochromatin": 28646,
  "ochrome": 5270,
  "ochromic": 25413,
  "oci": 595,
  "ocial": 2078,
  "ociated": 3103,
  "ociation": 4335,
  "ociations": 17933,
  "ocic": 9040,
  "ociception": 19173,
  "ociceptive": 12227,
  "ocin": 7713,
  "ocity": 24378,
  "ock": 1198,
  "ocket": 11857,
  "ockets": 23381,
  "ocking": 9122,
  "ocks": 13627,
  "ocl": 3686,
  "oclonal": 4554,
  "oclopramide": 28266,
  "oco": 13711,
  "ocoagulation": 23146,
  "ococc": 3060,
  "ococcal": 7800,
  "ococci": 10699,
  "ococcosis": 26487,
  "ococcus": 4455,
  "ocol": 17201,
  "ocolitis": 26404,
  "ocom": 26244,
  "ocomial": 15015,
  "ocomp": 6513,
  "ocompatibility": 10192,
  "ocompatible": 20385,
  "ocon": 6580,
  "oconazole": 24805,
  "oconjug": 20386,
  "oconjugates": 26664,
  "oconstr": 9956,
  "oconversion": 18327,
  "ocor": 8318,
  "ocortex": 24170,
  "ocortic": 6546,
  "ocortical": 13047,
  "ocorticoid": 21678,
  "ocortin": 25071,
  "ocr": 12423,
  "ocratic": 26479,
  "ocrine": 4628,
  "ocriptine": 25199,
  "ocrit": 13944,
  "oct": 7449,
  "ocular": 6423,
  "ocument": 18977,
  "ocumented": 23922,
  "ocus": 13282,
  "ocutaneous": 16630,
  "ocy": 1641,
  "ocyan": 8628,
  "ocyanate": 16614,
  "ocyanin": 18860,
  "ocyanine": 18631,
  "ocyanins": 27171,
  "ocycl": 10446,
  "ocyclic": 17090,
  "ocycline": 26730,
  "ocys": 6545,
  "ocyst": 11720,
  "ocystein": 27334,
  "ocysteine": 12280,
  "ocystis": 17814,
  "ocysts": 12981,
  "ocyt": 1245,
  "ocyte": 2303,
  "ocytes": 1599,
  "ocytic": 5255,
  "ocytoma": 14652,
  "ocytopenia": 28486,
  "ocytosis": 6099,
  "od": 344,
  "oda": 19828,
  "odal": 8670,
  "odality": 27200,
  "oday": 23962,
  "odds": 8337,
  "ode": 1903,
  "odec": 10262,
  "oded": 6707,
  "odef": 7155,
  "odegrad": 10611,
  "odemographic": 14539,
  "odend": 12391,
  "odeoxy": 13667,
  "odeoxycholic": 27689,
  "odeoxyglucose": 26130,
  "odeoxyuridine": 28508,
  "oder": 10971,
  "oderm": 12292,
  "oderma": 13150,
  "odermal": 16063,
  "odes": 2748,
  "odex": 12625,
  "odextrin": 15348,
  "odg": 8992,
  "odgkin": 9354,
  "odi": 12857,
  "odia": 19017,
  "odiagn": 27967,
  "odialysis": 7370,
  "odiazep": 11352,
  "odic": 11788,
  "odies": 1873,
  "odil": 7099,
  "odin": 26099,
  "odine": 17739,
  "oding": 3364,
  "odipine": 16674,
  "odium": 2786,
  "odom": 17920,
  "odomain": 24819,
  "odon": 5535,
  "odone": 23569,
  "odontic": 10118,
  "odopa": 19254,
  "ods": 7261,
  "odular": 23391,
  "oduoden": 24921,
  "oduodenectomy": 27129,
  "ody": 1130,
  "odyn": 21677,
  "odynamic": 4001,
  "odynia": 23344,
  "odys": 13283,
  "odystrophy": 23290,
  "oe": 5386,
  "oea": 9590,
  "oeae": 28357,
  "oeba": 20508,
  "oedema": 24908,
  "oemb": 8016,
  "oembryonic": 24323,
  "oencephal": 18890,
  "oepid": 28182,
  "oes": 7068,
  "oesophageal": 21518,
  "of": 1427,
  "ofacial": 11471,
  "ofemoral": 18558,
  "ofen": 12327,
  "ofenac": 17862,
  "ofer": 19741,
  "oferrin": 23359,
  "off": 4652,
  "offs": 22771,
  "ofib": 8449,
  "ofibr": 14732,
  "ofibrate": 25164,
  "ofil": 6486,
  "ofl": 6822,
  "oflav": 12256,
  "oflavin": 20563,
  "ofloxacin": 24422,
  "oflu": 27890,
  "ofluor": 23974,
  "ofluorescence": 8081,
  "ofluorescent": 21846,
  "oflurane": 11571,
  "ofol": 10817,
  "ofovir": 28103,
  "ofrequency": 13284,
  "ofuran": 17961,
  "og": 363,
  "ogas": 28133,
  "ogaster": 16389,
  "ogastric": 21348,
  "oge": 18195,
  "ogel": 25303,
  "ogen": 735,
  "ogene": 2496,
  "ogeneic": 9088,
  "ogeneity": 24130,
  "ogenes": 9546,
  "ogenesis": 1974,
  "ogenetic": 4246,
  "ogenetics": 21599,
  "ogenic": 2071,
  "ogenicity": 9315,
  "ogenin": 19997,
  "ogenous": 2957,
  "ogens": 5239,
  "ogeny": 13871,
  "ogether": 9363,
  "ogl": 11478,
  "ogle": 23645,
  "oglitazone": 26109,
  "oglob": 3132,
  "oglobin": 4550,
  "oglobulin": 6671,
  "oglobulins": 16026,
  "ogluc": 21083,
  "oglut": 22759,
  "oglyc": 6201,
  "oglycan": 12070,
  "oglycans": 14992,
  "oglycer": 27204,
  "ogn": 2027,
  "ogni": 2759,
  "ognition": 8776,
  "ognitive": 2793,
  "ogold": 28351,
  "ogon": 25067,
  "ogonal": 17073,
  "ogra": 773,
  "ograde": 24901,
  "ograft": 6818,
  "ografts": 10008,
  "ogram": 5726,
  "ograms": 7682,
  "ograp": 20116,
  "ograph": 866,
  "ographic": 1786,
  "ographical": 9338,
  "ographically": 10138,
  "ographies": 23724,
  "ographs": 7557,
  "ography": 1195,
  "ogrel": 16004,
  "ogroup": 16741,
  "ogs": 20284,
  "oguan": 27139,
  "ogue": 17196,
  "ogues": 27452,
  "ogy": 22450,
  "oh": 2870,
  "ohex": 15540,
  "ohimbine": 27630,
  "ohist": 3600,
  "ohum": 25044,
  "ohumeral": 26705,
  "ohydr": 5851,
  "ohydrate": 20177,
  "oic": 5002,
  "oice": 9696,
  "oichi": 14537,
  "oid": 814,
  "oidal": 5087,
  "oide": 24615,
  "oides": 8712,
  "oidosis": 12566,
  "oids": 2737,
  "oidy": 15023,
  "oil": 12676,
  "oin": 5191,
  "oining": 20352,
  "oinositi": 18814,
  "oinositide": 21240,
  "oint": 2475,
  "ointegr": 24885,
  "oir": 10625,
  "ois": 10430,
  "oj": 21424,
  "ok": 1033,
  "okal": 24669,
  "oke": 14464,
  "oked": 4366,
  "oker": 13204,
  "okers": 12860,
  "okes": 16623,
  "okinase": 13199,
  "okine": 2789,
  "okines": 4114,
  "okinetic": 13912,
  "okinetics": 20693,
  "oking": 7905,
  "okinin": 17611,
  "ol": 309,
  "ola": 10448,
  "olab": 10417,
  "olac": 23787,
  "olactone": 23049,
  "olamine": 22445,
  "olar": 1662,
  "olarity": 26780,
  "olars": 18708,
  "olase": 19025,
  "olate": 8418,
  "olated": 10480,
  "olateral": 11810,
  "olates": 23241,
  "olation": 10043,
  "old": 1068,
  "olding": 8702,
  "olds": 6130,
  "ole": 1635,
  "olec": 2682,
  "olectomy": 27212,
  "olecular": 3734,
  "olecule": 13687,
  "olecules": 11874,
  "oleic": 15913,
  "olenic": 27259,
  "oler": 10103,
  "olerance": 12597,
  "olerant": 26699,
  "oles": 1559,
  "olester": 10478,
  "olesterol": 2979,
  "olesterole": 13117,
  "olet": 9141,
  "olf": 27152,
  "olgi": 12177,
  "oli": 4657,
  "olia": 16248,
  "olic": 1210,
  "olid": 7338,
  "olide": 18232,
  "olig": 13381,
  "olimus": 26713,
  "olin": 4390,
  "oline": 3670,
  "olinergic": 8492,
  "olines": 27028,
  "olinium": 16008,
  "oliosis": 14654,
  "olip": 3267,
  "olipid": 9914,
  "olipids": 15634,
  "olipin": 24119,
  "olipoprotein": 10786,
  "olis": 23612,
  "olism": 5953,
  "olite": 22420,
  "olith": 19533,
  "olium": 26364,
  "olization": 8821,
  "olk": 13662,
  "oll": 3092,
  "ollagen": 15344,
  "ollen": 21016,
  "ollic": 19170,
  "ollicular": 23404,
  "ollow": 4668,
  "olog": 478,
  "ologic": 1673,
  "ological": 721,
  "ologically": 4080,
  "ologies": 4313,
  "ologist": 8532,
  "ologists": 5200,
  "ologous": 4382,
  "ology": 928,
  "olol": 7302,
  "olon": 27267,
  "olone": 7574,
  "olones": 19223,
  "olor": 13373,
  "ols": 2278,
  "olstein": 19917,
  "oluble": 8104,
  "olum": 6284,
  "olumbar": 25427,
  "olume": 10668,
  "oluminescence": 16331,
  "olumn": 21971,
  "olus": 7962,
  "olute": 5768,
  "olution": 1881,
  "olve": 10911,
  "olved": 4045,
  "olves": 23688,
  "olving": 9838,
  "oly": 1781,
  "olyl": 18040,
  "olym": 13154,
  "olymer": 10617,
  "olymers": 16286,
  "olymph": 21826,
  "olys": 28492,
  "olysin": 22530,
  "olysis": 4508,
  "olytic": 4093,
  "olytica": 22312,
  "olyticus": 25921,
  "om": 301,
  "oma": 904,
  "omal": 2311,
  "omalacia": 25147,
  "oman": 4738,
  "omandibular": 16755,
  "omas": 2228,
  "omat": 3996,
  "omated": 19055,
  "omatic": 4584,
  "omatis": 19809,
  "omatoid": 28348,
  "omatosis": 13316,
  "omatous": 8562,
  "omb": 8876,
  "ombic": 27151,
  "ome": 656,
  "omed": 11948,
  "omedial": 21213,
  "omega": 24573,
  "omegal": 9399,
  "omegalovirus": 13215,
  "omegaly": 15545,
  "omen": 1069,
  "omer": 2815,
  "omerase": 9242,
  "omere": 14746,
  "omeres": 24154,
  "omeric": 7817,
  "omers": 5801,
  "omerular": 22077,
  "omes": 1217,
  "omestic": 8736,
  "omet": 1324,
  "ometabolic": 26314,
  "ometer": 7229,
  "ometers": 18826,
  "ometh": 8138,
  "omethacin": 11880,
  "omethane": 23021,
  "omethyl": 11197,
  "ometrial": 26435,
  "ometric": 3027,
  "ometrically": 18848,
  "ometry": 3137,
  "omia": 26605,
  "omial": 10754,
  "omiasis": 17613,
  "omic": 1666,
  "omical": 5949,
  "omically": 14237,
  "omics": 9169,
  "omide": 14337,
  "ominant": 21952,
  "oming": 8927,
  "omiting": 10461,
  "omn": 20133,
  "omnia": 14707,
  "omo": 11843,
  "omod": 10622,
  "omol": 27486,
  "omolgus": 28793,
  "omon": 5948,
  "omonas": 6737,
  "omorph": 7369,
  "omorphic": 14580,
  "omorphine": 20495,
  "omotion": 14914,
  "omotor": 7575,
  "omous": 16937,
  "omp": 1697,
  "ompass": 13212,
  "omponent": 24572,
  "omus": 25812,
  "omy": 1520,
  "omyc": 10593,
  "omyces": 20915,
  "omycin": 5673,
  "omycosis": 18275,
  "omyel": 9263,
  "omyelitis": 12152,
  "omyosin": 27538,
  "omyositis": 28488,
  "on": 260,
  "ona": 11677,
  "onad": 14105,
  "onal": 1442,
  "onality": 19087,
  "onance": 19143,
  "onant": 26446,
  "onary": 2188,
  "onas": 19176,
  "onasal": 18114,
  "onat": 18828,
  "onatal": 15801,
  "onate": 5879,
  "onates": 16116,
  "onazole": 11039,
  "onc": 13560,
  "oncogene": 28521,
  "ond": 864,
  "ondialdehyde": 15549,
  "ondon": 18758,
  "onduc": 10055,
  "ondyl": 22847,
  "ondylar": 26859,
  "one": 556,
  "onecrosis": 20208,
  "oned": 20318,
  "onegative": 19377,
  "onella": 28147,
  "oneph": 10228,
  "onephritis": 13142,
  "onephrosis": 24112,
  "onergic": 16054,
  "ones": 2173,
  "oneuro": 26587,
  "oney": 12062,
  "ong": 547,
  "ongen": 14113,
  "ongenital": 15464,
  "ongr": 23616,
  "ongue": 10721,
  "oni": 19047,
  "onia": 3606,
  "oniazid": 24003,
  "onic": 1642,
  "onical": 15148,
  "onide": 19072,
  "onin": 3753,
  "onine": 13351,
  "oning": 15921,
  "onins": 23577,
  "oninvasive": 28507,
  "onit": 8950,
  "onitoring": 20593,
  "onitrile": 11882,
  "onium": 12088,
  "only": 13478,
  "onn": 22241,
  "ono": 6357,
  "onography": 6593,
  "onomic": 4483,
  "onor": 13388,
  "ons": 544,
  "onses": 1804,
  "onset": 8748,
  "onsin": 24815,
  "onstr": 920,
  "onstruc": 27128,
  "onstruct": 28738,
  "onstruction": 15606,
  "ont": 6837,
  "ontal": 5662,
  "ontan": 23419,
  "ontin": 4587,
  "ontine": 20522,
  "onto": 28169,
  "onucl": 12993,
  "onucle": 3584,
  "onuclear": 6627,
  "onuclease": 12799,
  "onus": 23110,
  "onv": 13484,
  "onvuls": 16414,
  "ony": 11355,
  "onyl": 9378,
  "onym": 11814,
  "onymous": 15117,
  "ood": 647,
  "ool": 3139,
  "ooled": 21773,
  "ools": 8479,
  "oom": 22833,
  "oon": 5458,
  "oons": 21562,
  "oor": 6661,
  "oot": 3894,
  "ooth": 22387,
  "op": 346,
  "opa": 8139,
  "opaedic": 14376,
  "opamine": 20165,
  "opanc": 23209,
  "opar": 18385,
  "opartic": 19698,
  "oparticles": 24473,
  "opath": 1691,
  "opathic": 5789,
  "opathies": 12818,
  "opathogenesis": 27466,
  "opathogenic": 24206,
  "opathologic": 12701,
  "opathological": 9258,
  "opathology": 11052,
  "opathy": 3187,
  "ope": 3916,
  "opec": 19532,
  "opecia": 20604,
  "oped": 23425,
  "open": 20705,
  "openia": 7783,
  "openic": 19245,
  "opening": 27902,
  "opent": 15702,
  "opeptidase": 16865,
  "opeptide": 19212,
  "opeptides": 24628,
  "oper": 3967,
  "operable": 25996,
  "operated": 12906,
  "operation": 8439,
  "operative": 1226,
  "operatively": 16995,
  "operfusion": 22078,
  "operidol": 14869,
  "operiod": 18908,
  "operitoneum": 25687,
  "operoxidase": 13761,
  "opes": 7854,
  "opexy": 26102,
  "oph": 935,
  "ophag": 4282,
  "ophage": 4132,
  "ophageal": 4369,
  "ophagy": 23583,
  "opharmac": 26672,
  "opharyngeal": 12093,
  "opharynx": 24519,
  "ophe": 12381,
  "opheles": 26095,
  "ophen": 7611,
  "ophenol": 22056,
  "ophenyl": 13795,
  "opherol": 15204,
  "ophil": 3735,
  "ophila": 7794,
  "ophilia": 10047,
  "ophilic": 6498,
  "ophilicity": 28530,
  "ophils": 11726,
  "ophilus": 12830,
  "ophore": 9244,
  "ophores": 15177,
  "ophoresis": 28106,
  "ophosph": 5140,
  "ophosphamide": 10791,
  "ophosphate": 10064,
  "ophosphorylation": 27906,
  "ophren": 4629,
  "ophrenia": 27453,
  "ophthal": 14763,
  "ophthalm": 18104,
  "ophthalmitis": 25536,
  "ophy": 14232,
  "ophyl": 7509,
  "ophyll": 10825,
  "ophylline": 13291,
  "ophys": 13315,
  "ophysi": 5401,
  "ophysical": 12446,
  "ophyt": 22621,
  "ophyte": 23614,
  "ophytes": 22251,
  "ophytic": 23454,
  "opi": 14405,
  "opia": 9805,
  "opian": 23406,
  "opic": 4285,
  "opically": 26477,
  "opid": 15917,
  "opidogrel": 16388,
  "oping": 27600,
  "opioid": 18686,
  "opl": 7606,
  "oplankton": 20437,
  "oplas": 1958,
  "oplasia": 16613,
  "oplasm": 14726,
  "oplasma": 16366,
  "oplasmic": 8273,
  "oplasmin": 28812,
  "oplasmosis": 19740,
  "oplast": 4571,
  "oplastic": 8717,
  "oplastin": 26465,
  "oplasts": 16646,
  "oplasty": 5370,
  "oplatin": 16759,
  "ople": 2857,
  "oplegia": 22172,
  "oplication": 26963,
  "opliteal": 28419,
  "opo": 4892,
  "opoiesis": 15083,
  "opoietic": 6767,
  "opoietin": 26338,
  "opoly": 7837,
  "opolymer": 27066,
  "opolys": 22918,
  "opolysaccharide": 9339,
  "opolysaccharides": 28739,
  "opor": 6047,
  "oporosis": 28225,
  "oporous": 16885,
  "oporph": 21113,
  "oporphyrin": 23524,
  "opos": 9526,
  "oposide": 16706,
  "opositive": 13659,
  "opositivity": 23901,
  "oposterior": 21945,
  "opper": 22707,
  "oppler": 6198,
  "opram": 17207,
  "opramide": 28091,
  "oprazole": 28762,
  "opre": 12413,
  "oprecip": 10936,
  "oprecipitation": 13978,
  "opres": 12703,
  "opress": 9471,
  "opressin": 10232,
  "oprevalence": 19738,
  "opril": 21697,
  "oprim": 21491,
  "opro": 2026,
  "oprofen": 27257,
  "oprol": 19294,
  "oproliferative": 14906,
  "oprolol": 20825,
  "oprop": 8596,
  "oprophylaxis": 23998,
  "opropyl": 11812,
  "oprost": 9763,
  "oprostol": 23592,
  "oprot": 7103,
  "oprote": 17106,
  "oprotection": 19451,
  "oprotective": 12167,
  "oprotein": 3030,
  "oproteins": 21337,
  "oproterenol": 14372,
  "ops": 14107,
  "opsies": 22965,
  "opsin": 17878,
  "opsis": 9029,
  "opsy": 8843,
  "opt": 2020,
  "opter": 10142,
  "optera": 15739,
  "opterin": 23529,
  "optic": 11691,
  "optical": 24888,
  "optim": 25745,
  "optimal": 13600,
  "optosis": 18018,
  "optysis": 28554,
  "opulation": 13873,
  "opulmonary": 8082,
  "opus": 25191,
  "opy": 7846,
  "opyr": 11792,
  "opyran": 11520,
  "opyranoside": 20837,
  "opyranosyl": 17902,
  "opyridine": 27543,
  "opyright": 26164,
  "oquin": 13784,
  "or": 278,
  "ora": 8797,
  "orac": 3808,
  "oracic": 9852,
  "oradi": 7944,
  "orage": 4833,
  "oral": 3005,
  "oratory": 19947,
  "orax": 12706,
  "orb": 2004,
  "orbable": 21267,
  "orbed": 6983,
  "orbent": 7618,
  "orbid": 14832,
  "orbidity": 16070,
  "orbital": 20873,
  "orbol": 11504,
  "ord": 984,
  "ordance": 7985,
  "ordant": 14025,
  "order": 2091,
  "ordered": 11881,
  "orders": 2214,
  "ordinate": 21479,
  "ordinated": 24421,
  "ordination": 24528,
  "ording": 1862,
  "ords": 16072,
  "ore": 450,
  "oreactive": 13218,
  "oreactivity": 23137,
  "oreal": 11126,
  "orec": 4066,
  "oreceptor": 22248,
  "oreceptors": 26290,
  "orectal": 4472,
  "orectomy": 28293,
  "ored": 2295,
  "oredoxin": 23178,
  "oreg": 14751,
  "oregional": 22472,
  "orel": 20210,
  "oren": 24382,
  "orene": 25905,
  "orepinephrine": 9446,
  "orer": 10186,
  "ores": 1094,
  "oresis": 5374,
  "oresistance": 22121,
  "orespiratory": 20691,
  "orespon": 22967,
  "orest": 20667,
  "oretic": 11050,
  "oretical": 17569,
  "oretin": 19625,
  "orf": 28352,
  "org": 17791,
  "organ": 3862,
  "organic": 7833,
  "organisms": 27876,
  "organization": 13967,
  "organized": 24224,
  "orh": 14509,
  "orhab": 22747,
  "ori": 4115,
  "orial": 13879,
  "oric": 9344,
  "oride": 20533,
  "orient": 11578,
  "orientation": 25155,
  "oriented": 15093,
  "ories": 4279,
  "orin": 15301,
  "oring": 2089,
  "orith": 4122,
  "ork": 968,
  "orld": 8057,
  "orm": 444,
  "ormal": 901,
  "ormonal": 22437,
  "ormone": 17676,
  "orn": 2790,
  "orous": 8684,
  "orp": 7289,
  "orph": 1773,
  "orphin": 14569,
  "orphine": 20016,
  "orphous": 13186,
  "orpor": 3355,
  "orporation": 20654,
  "orporeal": 12431,
  "orption": 2129,
  "orptive": 21197,
  "orr": 11383,
  "orrect": 16500,
  "orrh": 3374,
  "orrhagic": 26516,
  "orrhea": 15955,
  "orrhiz": 18652,
  "orrhizal": 24273,
  "ors": 719,
  "orsal": 23570,
  "ort": 1054,
  "ortal": 13957,
  "ortem": 10988,
  "ortex": 23144,
  "orth": 11606,
  "orthy": 25643,
  "ortic": 2502,
  "ortium": 22641,
  "orts": 4786,
  "orty": 6659,
  "orubicin": 9374,
  "orum": 16297,
  "orus": 15724,
  "ory": 634,
  "orylation": 18038,
  "os": 307,
  "osa": 2904,
  "osacral": 23011,
  "osahexa": 26097,
  "osahexaenoic": 27103,
  "osaic": 13219,
  "osal": 4888,
  "osamine": 12699,
  "osan": 7545,
  "osap": 24924,
  "osarcoma": 8718,
  "osarcomas": 24759,
  "osc": 20343,
  "osclerosis": 22403,
  "oscop": 2364,
  "oscope": 13328,
  "oscopic": 3919,
  "oscopy": 4425,
  "ose": 524,
  "osecond": 16074,
  "osed": 6867,
  "oselec": 15426,
  "oselective": 10948,
  "oselectivity": 17587,
  "osen": 8428,
  "osensory": 13026,
  "oser": 24749,
  "oses": 6180,
  "osexual": 15069,
  "osf": 23985,
  "osh": 25916,
  "osi": 21665,
  "osidase": 9999,
  "oside": 4771,
  "osides": 10314,
  "osin": 3752,
  "osine": 3958,
  "osing": 7933,
  "osinus": 24396,
  "osinusitis": 25528,
  "osis": 632,
  "ositi": 18205,
  "osities": 24499,
  "osition": 17265,
  "ositis": 12980,
  "ositol": 8096,
  "osity": 6237,
  "osm": 13338,
  "osmotic": 20697,
  "osocial": 7465,
  "osol": 24867,
  "osomal": 4262,
  "osome": 6518,
  "osomes": 4896,
  "osp": 4086,
  "ospasm": 16976,
  "ospatial": 26010,
  "ospecific": 22579,
  "osper": 12034,
  "osperm": 24564,
  "ospermia": 21178,
  "osph": 1020,
  "osphere": 18325,
  "ospheres": 26953,
  "ospice": 21094,
  "ospinal": 22362,
  "ospit": 1236,
  "ospital": 1402,
  "ospitals": 4725,
  "ospor": 5824,
  "ospora": 23373,
  "osporidium": 22607,
  "oss": 1585,
  "osseous": 18934,
  "ost": 514,
  "ostal": 25616,
  "ostasis": 5943,
  "ostat": 20943,
  "ostatic": 8581,
  "ostatin": 8775,
  "oste": 11496,
  "osteal": 20924,
  "oster": 2699,
  "osteric": 16947,
  "osterol": 22220,
  "osteron": 27124,
  "osterone": 4131,
  "ostic": 3111,
  "ostig": 21918,
  "ostigmine": 22560,
  "ostin": 24460,
  "ostom": 19576,
  "ostomy": 8791,
  "oston": 28851,
  "ostosis": 20573,
  "ostr": 9566,
  "ostridium": 14935,
  "ostrum": 24398,
  "osts": 8806,
  "osulf": 17284,
  "osum": 11604,
  "osup": 17307,
  "osuppression": 26947,
  "osure": 14895,
  "osus": 7324,
  "osyl": 6019,
  "osylated": 19240,
  "osylation": 15631,
  "osyltransferase": 17865,
  "osyn": 19067,
  "osynthesis": 18837,
  "osystem": 8819,
  "ot": 332,
  "ota": 7870,
  "otactic": 10530,
  "otal": 4449,
  "otax": 20826,
  "otaxime": 28332,
  "ote": 6915,
  "otecan": 18723,
  "otechnology": 23890,
  "oted": 12922,
  "otemporal": 14473,
  "otensin": 5469,
  "otent": 14719,
  "otential": 10201,
  "oter": 13014,
  "otericin": 17855,
  "otes": 8170,
  "oth": 620,
  "othal": 21526,
  "othalamic": 26312,
  "othane": 16325,
  "othe": 1072,
  "othel": 2344,
  "othelial": 10898,
  "othelin": 27566,
  "othelioma": 16829,
  "other": 2023,
  "otherap": 14183,
  "otherapeutic": 10172,
  "otherapies": 23641,
  "otherapy": 1696,
  "othermal": 19022,
  "othermic": 19971,
  "others": 21006,
  "othi": 16521,
  "othiaz": 15400,
  "othiazide": 27805,
  "othiocyanate": 24766,
  "othione": 20235,
  "othionein": 23623,
  "othoracic": 28526,
  "othorax": 14626,
  "othyronine": 19693,
  "oti": 2635,
  "otic": 1352,
  "otics": 14659,
  "otide": 3700,
  "otides": 7130,
  "otin": 8367,
  "otine": 22925,
  "oting": 14074,
  "otinib": 22297,
  "otion": 24991,
  "otional": 20282,
  "oto": 13762,
  "otocin": 14807,
  "otom": 11417,
  "otomies": 19789,
  "otomy": 4539,
  "otonic": 18291,
  "otonin": 23222,
  "otope": 23595,
  "otopic": 10966,
  "otor": 2466,
  "otox": 2145,
  "otoxic": 7934,
  "otoxicity": 7503,
  "otoxin": 6682,
  "otoxins": 16142,
  "otr": 5367,
  "otracheal": 17876,
  "otrexate": 11326,
  "otri": 13516,
  "otrig": 27646,
  "otrip": 20237,
  "otrop": 3384,
  "otroph": 6629,
  "otrophic": 10222,
  "otrophs": 28189,
  "otropic": 5274,
  "otropin": 9161,
  "otropy": 13549,
  "otrypsin": 19610,
  "ots": 4970,
  "ott": 16451,
  "ottic": 20354,
  "otub": 8354,
  "otyp": 3555,
  "otype": 2226,
  "otyped": 13390,
  "otypes": 3455,
  "otypic": 5624,
  "otypical": 23755,
  "otypically": 21784,
  "otyping": 9124,
  "ou": 6786,
  "ouble": 12988,
  "ough": 1102,
  "ought": 7255,
  "oul": 6401,
  "ould": 1117,
  "oulder": 7809,
  "ouling": 20232,
  "oun": 1486,
  "ound": 594,
  "ounds": 20015,
  "oung": 2242,
  "ount": 2217,
  "ountain": 25649,
  "ounted": 19283,
  "ounts": 4225,
  "oup": 12845,
  "our": 628,
  "ouracil": 12214,
  "oural": 24981,
  "ource": 14461,
  "ources": 26174,
  "oured": 17373,
  "ourinary": 25408,
  "ouring": 19878,
  "ourished": 19263,
  "ournal": 19425,
  "ours": 2065,
  "ourse": 10503,
  "ous": 445,
  "ouse": 2069,
  "ouses": 21980,
  "ously": 11920,
  "oustic": 7735,
  "out": 711,
  "outh": 3428,
  "outheast": 21919,
  "outheastern": 25918,
  "outhern": 7640,
  "outine": 20251,
  "outs": 26824,
  "oux": 22682,
  "ov": 985,
  "ova": 22364,
  "ovaginal": 24146,
  "oval": 3046,
  "ovalent": 15377,
  "ovan": 27433,
  "ovar": 20268,
  "ovascular": 2410,
  "ove": 1965,
  "oveal": 20255,
  "oved": 5446,
  "ovember": 10687,
  "oventricular": 15281,
  "over": 1216,
  "overed": 4432,
  "overex": 28132,
  "overn": 21615,
  "overy": 2402,
  "oves": 16556,
  "ovi": 14862,
  "ovial": 10686,
  "ovine": 4595,
  "oving": 24653,
  "ovir": 11456,
  "oviral": 20190,
  "ovirus": 5015,
  "oviruses": 19094,
  "ovol": 20788,
  "ovsk": 16557,
  "ovudine": 27185,
  "ovulatory": 20540,
  "ow": 348,
  "oward": 22222,
  "owards": 28188,
  "owed": 25879,
  "owel": 5195,
  "ower": 10282,
  "owever": 933,
  "owl": 25352,
  "own": 2270,
  "ows": 5105,
  "ox": 601,
  "oxacin": 7795,
  "oxal": 12296,
  "oxamine": 18759,
  "oxan": 16660,
  "oxane": 11671,
  "oxaz": 25548,
  "oxazole": 16105,
  "oxel": 18429,
  "oxetine": 13621,
  "oxia": 11431,
  "oxib": 14806,
  "oxic": 7628,
  "oxication": 13617,
  "oxicillin": 19875,
  "oxid": 2308,
  "oxidant": 15384,
  "oxidase": 10690,
  "oxidation": 12965,
  "oxidative": 23127,
  "oxide": 3178,
  "oxides": 18490,
  "oxif": 9209,
  "oxifen": 12136,
  "oxifene": 28574,
  "oxime": 26248,
  "oxin": 6644,
  "oxine": 24129,
  "oxins": 19199,
  "oxious": 21783,
  "oxo": 13039,
  "oxon": 14881,
  "oxone": 13007,
  "oxorubicin": 10086,
  "oxy": 2971,
  "oxycycl": 20996,
  "oxycycline": 22115,
  "oxygen": 6066,
  "oxygenase": 8050,
  "oxygenation": 19255,
  "oxyl": 4485,
  "oxylation": 26152,
  "oxylin": 19579,
  "oxym": 27180,
  "oxymethyl": 18390,
  "oxyn": 14878,
  "oxynucle": 21500,
  "oxyp": 12509,
  "oxyphenyl": 23876,
  "oxyrib": 19042,
  "oxyribonucle": 23687,
  "oxys": 24095,
  "oy": 2138,
  "oya": 27089,
  "oyal": 22480,
  "oyl": 6552,
  "oz": 3039,
  "ozapine": 16772,
  "ozo": 6764,
  "ozoa": 9310,
  "ozoites": 24472,
  "ozyg": 5024,
  "ozygous": 7070,
  "p": 79,
  "pA": 23439,
  "pH": 10919,
  "pa": 1057,
  "pable": 18902,
  "pact": 9739,
  "padias": 25999,
  "paign": 14413,
  "pain": 14847,
  "pair": 1891,
  "paired": 3652,
  "pairment": 26391,
  "pal": 10342,
  "pan": 12360,
  "panze": 23223,
  "par": 907,
  "parag": 18073,
  "parallel": 26319,
  "paramet": 13492,
  "parameter": 27037,
  "parametric": 17100,
  "paras": 21052,
  "paration": 15037,
  "parative": 9004,
  "paratus": 10203,
  "pare": 11698,
  "pared": 21541,
  "paren": 16268,
  "parency": 23171,
  "parent": 3293,
  "parin": 25780,
  "paring": 11527,
  "parison": 5674,
  "part": 2890,
  "partate": 9321,
  "partic": 8296,
  "particle": 17736,
  "particles": 16870,
  "parts": 11485,
  "partum": 8211,
  "pase": 6292,
  "pass": 4704,
  "path": 10125,
  "pathogenic": 27499,
  "pathological": 26300,
  "pathy": 15655,
  "patient": 4319,
  "patients": 7695,
  "pation": 9942,
  "pc": 27965,
  "pe": 1597,
  "peak": 14309,
  "pean": 27512,
  "pec": 414,
  "pecially": 2733,
  "pecific": 6725,
  "pecitabine": 27705,
  "pect": 2670,
  "pected": 2590,
  "pective": 767,
  "pectively": 986,
  "pectives": 9515,
  "pectomy": 23091,
  "pects": 3730,
  "ped": 4894,
  "pel": 21916,
  "pen": 10730,
  "pent": 16450,
  "peptidase": 28850,
  "peptide": 10910,
  "per": 423,
  "perature": 10437,
  "perceived": 28565,
  "performance": 8703,
  "perfused": 28783,
  "perfusion": 5371,
  "perg": 9490,
  "pergill": 21203,
  "pergillus": 12067,
  "period": 17295,
  "peritone": 13685,
  "peritoneal": 7119,
  "peritoneally": 15317,
  "perm": 19290,
  "perme": 18513,
  "permeable": 26594,
  "pers": 6883,
  "person": 21715,
  "personal": 12056,
  "pert": 23610,
  "pes": 7855,
  "petitive": 16065,
  "pg": 28560,
  "ph": 386,
  "pha": 1139,
  "phadex": 20607,
  "phae": 27302,
  "phal": 2827,
  "phalan": 26894,
  "phan": 23056,
  "pharmac": 16591,
  "pharmacological": 25651,
  "pharose": 16879,
  "phase": 4803,
  "phasic": 10627,
  "phe": 28073,
  "phen": 7665,
  "phenanth": 28686,
  "phenidate": 26219,
  "phenol": 20719,
  "phenyl": 6396,
  "phenylalanine": 24799,
  "phi": 18237,
  "phia": 26831,
  "phic": 12740,
  "phing": 23440,
  "phone": 10230,
  "phorbol": 25667,
  "phos": 22653,
  "phosph": 2931,
  "phosphatase": 19671,
  "phosphate": 5336,
  "phosphatidyl": 18647,
  "phospholipid": 18004,
  "phosphor": 10560,
  "phosphorylated": 20372,
  "phosphorylation": 17844,
  "phot": 11260,
  "photon": 14729,
  "phox": 28584,
  "phrine": 5952,
  "phs": 27243,
  "phthal": 7236,
  "phther": 23626,
  "phtheria": 25331,
  "phy": 6634,
  "phyl": 5142,
  "phys": 22111,
  "physi": 23734,
  "physical": 28290,
  "physiological": 15643,
  "pi": 6711,
  "pic": 9044,
  "pical": 18679,
  "picillin": 17988,
  "picuous": 23690,
  "pid": 5924,
  "pidemi": 10756,
  "piece": 26543,
  "pig": 10612,
  "pin": 6931,
  "pinal": 7657,
  "pine": 6104,
  "pinephrine": 9205,
  "ping": 5254,
  "piper": 16564,
  "pir": 3108,
  "piration": 15946,
  "piratory": 7961,
  "pired": 17071,
  "pirical": 25075,
  "pit": 976,
  "pite": 2853,
  "pithelial": 18219,
  "pituit": 17082,
  "pituitary": 17108,
  "pl": 416,
  "plac": 2582,
  "place": 7946,
  "placement": 3480,
  "placental": 28282,
  "plan": 9062,
  "planar": 22079,
  "plane": 17039,
  "planned": 23323,
  "plant": 1259,
  "plantation": 2107,
  "plants": 4910,
  "plas": 2939,
  "plasia": 4569,
  "plasm": 24773,
  "plasma": 16882,
  "plastic": 7494,
  "plasties": 28518,
  "plasty": 6980,
  "plate": 6264,
  "platelet": 12541,
  "plates": 16664,
  "platin": 6693,
  "play": 12523,
  "ple": 707,
  "pled": 28709,
  "plement": 2007,
  "plementary": 21085,
  "plementation": 14769,
  "plemented": 19768,
  "plements": 12445,
  "plen": 17848,
  "plenic": 27951,
  "pler": 5505,
  "ples": 1283,
  "plete": 5714,
  "plex": 8060,
  "pli": 11893,
  "pliance": 14987,
  "plic": 979,
  "plicated": 13603,
  "plication": 8045,
  "plications": 8099,
  "plicit": 10559,
  "plicity": 15884,
  "plied": 2202,
  "plies": 9746,
  "pling": 24295,
  "plo": 18438,
  "ploid": 10010,
  "ploy": 2657,
  "ployed": 17401,
  "ployment": 13767,
  "ploys": 23586,
  "plus": 21056,
  "ply": 5309,
  "plying": 16768,
  "pm": 6854,
  "po": 4457,
  "poc": 4171,
  "pocamp": 4261,
  "pocampal": 22233,
  "point": 5040,
  "points": 9114,
  "pol": 22628,
  "polar": 8537,
  "polarization": 14760,
  "poll": 28307,
  "poly": 8166,
  "polyacrylamide": 20071,
  "polymer": 11118,
  "polymerase": 14387,
  "pon": 638,
  "ponectin": 12329,
  "ponent": 11366,
  "ponential": 25479,
  "ponents": 24356,
  "ponin": 13798,
  "ponses": 16165,
  "pontaneous": 14040,
  "poor": 21253,
  "pop": 8382,
  "population": 22575,
  "por": 454,
  "pora": 18241,
  "poration": 25156,
  "porous": 21460,
  "porph": 22293,
  "porphyrin": 26737,
  "port": 607,
  "portant": 10807,
  "ported": 3242,
  "porter": 16979,
  "portion": 14778,
  "portive": 11714,
  "ports": 5079,
  "portun": 5266,
  "pos": 727,
  "posable": 23133,
  "posal": 12277,
  "pose": 1978,
  "posed": 2049,
  "poses": 7121,
  "posing": 10167,
  "posit": 23885,
  "posite": 6820,
  "posites": 18063,
  "position": 3157,
  "positions": 25284,
  "positive": 3312,
  "posity": 18186,
  "possible": 16643,
  "post": 14155,
  "posterior": 20506,
  "posure": 8381,
  "pot": 12394,
  "potential": 23195,
  "power": 18272,
  "pox": 28514,
  "pp": 14780,
  "pr": 5043,
  "prac": 22551,
  "practice": 25464,
  "pre": 2628,
  "pread": 7353,
  "prec": 13913,
  "preced": 19130,
  "precedented": 19183,
  "pred": 10783,
  "predic": 27907,
  "predict": 19995,
  "prednis": 18478,
  "prednisolone": 19555,
  "pregn": 11789,
  "pregnant": 16337,
  "prepared": 24193,
  "pres": 510,
  "present": 12555,
  "presentation": 27445,
  "presented": 22899,
  "presenting": 20844,
  "press": 2778,
  "pressant": 24345,
  "pressed": 1671,
  "presses": 10634,
  "pressing": 4354,
  "pression": 680,
  "pressive": 3889,
  "pressor": 16851,
  "pressure": 13672,
  "pretreated": 26582,
  "pri": 2660,
  "priate": 3000,
  "prim": 17430,
  "primary": 22766,
  "primed": 27027,
  "prin": 12609,
  "princ": 23438,
  "print": 17305,
  "prising": 10148,
  "prisingly": 11910,
  "pro": 523,
  "proBNP": 21420,
  "prob": 25488,
  "probe": 25190,
  "process": 12200,
  "processed": 26934,
  "processing": 17570,
  "produc": 2836,
  "produced": 26259,
  "producing": 9284,
  "product": 20052,
  "production": 18029,
  "productive": 20744,
  "products": 18927,
  "prof": 12949,
  "professional": 18378,
  "prol": 21320,
  "prolactin": 26380,
  "proliferative": 12511,
  "proline": 26128,
  "prom": 11345,
  "promazine": 26393,
  "promoting": 17847,
  "prone": 21452,
  "prop": 7210,
  "proportion": 17357,
  "propyl": 17712,
  "propylene": 22328,
  "prost": 19337,
  "prosy": 17032,
  "prot": 6388,
  "prote": 20287,
  "protected": 19405,
  "protection": 15973,
  "protective": 10287,
  "protein": 5703,
  "proteins": 23990,
  "proton": 19063,
  "proven": 21827,
  "ps": 6314,
  "pseud": 28239,
  "psin": 14424,
  "pstein": 15905,
  "psych": 7679,
  "psychological": 26648,
  "pt": 2905,
  "ption": 1568,
  "ptococcus": 10067,
  "pts": 23847,
  "pub": 20840,
  "published": 28803,
  "pul": 23168,
  "pulmonary": 22198,
  "pulse": 19653,
  "pump": 16749,
  "pur": 12946,
  "purified": 26508,
  "put": 2696,
  "py": 6391,
  "pyr": 5513,
  "pyrene": 18636,
  "pyridine": 14531,
  "pyridyl": 22060,
  "pyrrol": 20459,
  "pyruvate": 24031,
  "q": 80,
  "qPCR": 24377,
  "qu": 387,
  "quad": 21005,
  "quadrup": 25392,
  "qual": 26036,
  "quality": 11740,
  "quamous": 25753,
  "quantitative": 13684,
  "quartile": 15190,
  "quat": 23407,
  "que": 1155,
  "queous": 4728,
  "ques": 2106,
  "quet": 23802,
  "qui": 1168,
  "quid": 2829,
  "quilibrium": 15365,
  "quin": 5650,
  "quine": 12765,
  "quinoline": 23069,
  "quinone": 10937,
  "quire": 14506,
  "quired": 4839,
  "quit": 5646,
  "quity": 28125,
  "r": 81,
  "rP": 21761,
  "ra": 337,
  "rab": 6536,
  "rac": 3216,
  "race": 26834,
  "racene": 21038,
  "rach": 20246,
  "racheal": 23928,
  "raconazole": 25850,
  "raction": 5569,
  "ractionated": 19867,
  "ractive": 10584,
  "ractory": 6855,
  "racycl": 10891,
  "racycline": 12882,
  "racyclines": 27015,
  "rad": 2618,
  "radi": 3017,
  "radiation": 18669,
  "radical": 22972,
  "rae": 25489,
  "raft": 15633,
  "rag": 2192,
  "rage": 20188,
  "rageenan": 24771,
  "ragg": 28387,
  "ragmatic": 19317,
  "ragment": 26505,
  "rague": 10299,
  "rain": 957,
  "raine": 8592,
  "rained": 21418,
  "raining": 15403,
  "rais": 14134,
  "raisal": 15629,
  "ral": 2625,
  "rals": 19441,
  "ram": 1122,
  "ramatic": 6535,
  "ramidal": 11974,
  "ramine": 10660,
  "ramolecular": 15891,
  "rams": 4253,
  "ramycin": 23628,
  "ran": 438,
  "rance": 8490,
  "ranch": 22867,
  "ranched": 28597,
  "rand": 14917,
  "randial": 13158,
  "random": 13228,
  "randomized": 19963,
  "rane": 4564,
  "ranean": 13607,
  "rang": 5907,
  "range": 3557,
  "ranged": 13347,
  "rangement": 8218,
  "rangements": 11205,
  "ranging": 20748,
  "ranial": 4223,
  "ranin": 26703,
  "rank": 11744,
  "ranolol": 11444,
  "rans": 3955,
  "rant": 11995,
  "rants": 10433,
  "ranul": 16415,
  "rap": 587,
  "rapeutic": 6943,
  "raphene": 23278,
  "rapy": 825,
  "rared": 6695,
  "ras": 6962,
  "rase": 28411,
  "rat": 11446,
  "rata": 26093,
  "rate": 12342,
  "rated": 15730,
  "ratentorial": 26918,
  "rater": 18190,
  "ratio": 22435,
  "ration": 2286,
  "raulic": 18599,
  "ravel": 20434,
  "raw": 3756,
  "rax": 23868,
  "ray": 2357,
  "rays": 7312,
  "raz": 3404,
  "razil": 6798,
  "razine": 26917,
  "razol": 13296,
  "razole": 10581,
  "razolium": 19969,
  "rc": 24252,
  "rd": 11960,
  "re": 259,
  "rea": 14315,
  "reach": 25174,
  "reaction": 20879,
  "reactive": 8070,
  "reactivity": 15201,
  "read": 3154,
  "readmill": 14211,
  "ready": 6655,
  "real": 12725,
  "ream": 3773,
  "reas": 483,
  "rease": 889,
  "reased": 650,
  "reases": 18947,
  "reasing": 10166,
  "reast": 1914,
  "reat": 479,
  "reated": 1029,
  "reater": 12903,
  "reatment": 2331,
  "rec": 855,
  "receptor": 7389,
  "receptors": 20410,
  "recip": 8659,
  "recipitation": 28008,
  "recogn": 15386,
  "recognized": 17004,
  "rect": 1313,
  "rectal": 19428,
  "rected": 6991,
  "rection": 15374,
  "rectional": 13137,
  "rectomy": 7278,
  "red": 433,
  "redi": 12328,
  "redic": 9538,
  "reditation": 23920,
  "reduced": 22023,
  "reducing": 19209,
  "reductase": 25117,
  "reduction": 20839,
  "ree": 658,
  "reed": 11761,
  "reedom": 13032,
  "reek": 20335,
  "reement": 18307,
  "reen": 4858,
  "reening": 10620,
  "rees": 2117,
  "ref": 8326,
  "reference": 26970,
  "reflex": 16472,
  "refractory": 23173,
  "reg": 1360,
  "regation": 11358,
  "region": 24597,
  "regional": 25568,
  "regn": 7200,
  "regnancy": 16118,
  "regnant": 24961,
  "regression": 27218,
  "regular": 9929,
  "regulate": 17447,
  "regulated": 4155,
  "regulates": 19541,
  "regulating": 16397,
  "regulation": 4329,
  "regulatory": 21088,
  "rehen": 4430,
  "rehensive": 19276,
  "rein": 18683,
  "reitol": 28696,
  "rel": 778,
  "reland": 20557,
  "related": 1679,
  "relation": 9376,
  "relations": 16968,
  "relationship": 21196,
  "relative": 15958,
  "rele": 6718,
  "release": 14118,
  "releasing": 10945,
  "reless": 24843,
  "relevant": 16215,
  "relia": 25157,
  "reliminary": 12787,
  "relin": 13382,
  "rem": 8124,
  "rement": 17144,
  "remia": 15703,
  "ren": 487,
  "renal": 3742,
  "renaline": 25803,
  "renatal": 21053,
  "rence": 4546,
  "rench": 10112,
  "rend": 24798,
  "rends": 21648,
  "rene": 6303,
  "renes": 27700,
  "renew": 23362,
  "renewal": 27102,
  "reng": 2992,
  "rength": 23428,
  "renic": 23547,
  "renorphine": 22287,
  "rent": 2274,
  "renz": 26660,
  "reonine": 15042,
  "reotide": 19442,
  "rep": 19312,
  "repe": 24263,
  "reperfusion": 11912,
  "report": 11473,
  "reported": 7092,
  "represented": 24872,
  "requ": 1105,
  "requency": 6006,
  "res": 334,
  "rescine": 27381,
  "resh": 2757,
  "reshold": 3802,
  "resia": 15751,
  "resid": 16785,
  "residue": 23606,
  "resis": 18655,
  "resist": 4345,
  "resistance": 15853,
  "resistant": 4730,
  "resolution": 8671,
  "resolved": 11909,
  "respective": 10972,
  "respon": 2053,
  "responders": 16765,
  "responding": 20115,
  "response": 7976,
  "responsive": 9509,
  "responsiveness": 18676,
  "ress": 1087,
  "ressed": 4864,
  "ressing": 13780,
  "ression": 1485,
  "ressive": 2879,
  "rest": 4870,
  "restim": 15358,
  "restrial": 17166,
  "restric": 12600,
  "restricted": 15006,
  "ret": 13919,
  "rete": 18168,
  "retest": 17140,
  "reth": 21652,
  "retic": 18719,
  "retin": 8789,
  "retinal": 18948,
  "retion": 21585,
  "retro": 10488,
  "retroviral": 11160,
  "rett": 20229,
  "rever": 9392,
  "review": 20408,
  "reviewed": 26752,
  "rew": 9968,
  "rex": 8308,
  "rexate": 11156,
  "rexone": 24282,
  "rey": 12644,
  "rf": 15871,
  "rh": 2366,
  "rhe": 23544,
  "ri": 622,
  "ria": 5389,
  "rial": 2607,
  "riamycin": 17624,
  "rian": 23875,
  "rib": 10698,
  "ribose": 20963,
  "ric": 872,
  "rical": 8163,
  "rically": 13491,
  "rice": 22055,
  "riceps": 19340,
  "rices": 11133,
  "rich": 4205,
  "riched": 7793,
  "rick": 25686,
  "rid": 15574,
  "ride": 21048,
  "rie": 27720,
  "ried": 10855,
  "rief": 5358,
  "riend": 9845,
  "ries": 8809,
  "rig": 7906,
  "rigel": 28811,
  "right": 12612,
  "ril": 5685,
  "rile": 7859,
  "rim": 3605,
  "rimal": 18535,
  "rimary": 6449,
  "rimers": 27450,
  "rin": 2636,
  "rine": 2743,
  "ring": 2451,
  "rio": 13198,
  "riol": 25105,
  "rior": 2515,
  "ris": 15916,
  "risk": 4780,
  "rist": 8369,
  "rists": 22597,
  "rit": 3541,
  "ritic": 6361,
  "ritical": 11922,
  "ritin": 11749,
  "ritis": 3128,
  "ritish": 14874,
  "riton": 17922,
  "rium": 4855,
  "rive": 20726,
  "rix": 3036,
  "ro": 279,
  "road": 17669,
  "roat": 20480,
  "rob": 2245,
  "robenz": 19169,
  "roblast": 19419,
  "roblasts": 19529,
  "robor": 16402,
  "roc": 7718,
  "rocal": 14679,
  "rocyte": 26448,
  "rocytes": 28447,
  "rod": 12804,
  "rodotoxin": 25264,
  "rof": 28758,
  "rog": 5230,
  "rogen": 2231,
  "rogenesis": 17798,
  "rogenic": 9039,
  "rogens": 9717,
  "roglycer": 20890,
  "roglycerin": 22017,
  "roid": 10949,
  "roids": 20337,
  "roin": 17372,
  "roke": 3100,
  "rol": 2253,
  "rolactone": 28664,
  "rolateral": 24880,
  "role": 11188,
  "roleum": 23826,
  "rolimus": 11759,
  "roline": 16477,
  "rolog": 9915,
  "rology": 20702,
  "rom": 376,
  "roma": 12563,
  "romagnetic": 18212,
  "romal": 20468,
  "romas": 25785,
  "romatic": 6192,
  "romatosis": 18310,
  "romb": 2255,
  "rombin": 6235,
  "rome": 1465,
  "romed": 23176,
  "romedial": 28264,
  "romegal": 20649,
  "romes": 7113,
  "rometry": 16684,
  "romic": 16632,
  "romised": 16719,
  "romy": 8850,
  "romyalgia": 21802,
  "romyces": 10712,
  "romycin": 9670,
  "ron": 891,
  "ronate": 15274,
  "ronbach": 20997,
  "ronch": 3511,
  "ronchial": 14199,
  "rone": 22953,
  "ronectin": 9988,
  "ronic": 1436,
  "ronidazole": 18611,
  "rons": 11735,
  "ront": 16336,
  "rontal": 9499,
  "room": 12262,
  "rop": 1321,
  "ropathy": 8842,
  "roph": 1583,
  "rophosph": 17979,
  "rophy": 28792,
  "rophyl": 15668,
  "rophylactic": 27998,
  "rophylaxis": 20580,
  "ropine": 14752,
  "roplasty": 17096,
  "ropo": 11256,
  "ropol": 16588,
  "ropolitan": 18518,
  "ropyl": 23280,
  "ror": 11348,
  "rors": 26105,
  "ros": 633,
  "rosarcoma": 18957,
  "roscler": 5083,
  "rosclerosis": 27393,
  "roscop": 1624,
  "roscopic": 3783,
  "roscopically": 16936,
  "roscopy": 8387,
  "rose": 5791,
  "rosemide": 19262,
  "rosine": 4787,
  "rosis": 2450,
  "rosomal": 27245,
  "rosome": 18775,
  "rosophila": 8761,
  "rospective": 6273,
  "rospinal": 9136,
  "rospor": 24954,
  "ross": 1439,
  "rost": 11971,
  "rosterone": 22981,
  "rot": 12172,
  "rotal": 19296,
  "rote": 27576,
  "rotein": 5331,
  "roten": 13501,
  "rotic": 7552,
  "rotid": 4389,
  "rotomy": 11637,
  "rough": 1056,
  "rought": 9480,
  "round": 2225,
  "roup": 1810,
  "rous": 4724,
  "rovascular": 11053,
  "row": 1900,
  "rowing": 14898,
  "rown": 6952,
  "rowth": 6585,
  "rox": 8191,
  "roxen": 26596,
  "rozen": 8681,
  "rs": 5591,
  "rug": 7106,
  "ruit": 27575,
  "rum": 19347,
  "run": 20415,
  "rup": 3299,
  "ruption": 24654,
  "rus": 10467,
  "ruskal": 28566,
  "russide": 20263,
  "ry": 1034,
  "rying": 17442,
  "ryl": 25202,
  "ryonic": 16293,
  "rys": 15278,
  "ryth": 19091,
  "s": 82,
  "sa": 21489,
  "saccharide": 6966,
  "sal": 8654,
  "salt": 22827,
  "sample": 22124,
  "saturated": 11482,
  "saving": 25540,
  "sc": 2250,
  "scale": 5929,
  "scan": 21800,
  "scat": 18588,
  "sch": 28889,
  "scher": 5141,
  "scherichia": 5159,
  "school": 26111,
  "score": 16431,
  "scores": 26981,
  "screen": 27417,
  "se": 399,
  "sec": 8612,
  "second": 15579,
  "secre": 11186,
  "secreting": 19847,
  "secretion": 27931,
  "section": 4403,
  "sectional": 4842,
  "sed": 995,
  "see": 22323,
  "seed": 22721,
  "seeking": 19547,
  "segment": 15376,
  "selec": 8812,
  "selected": 15040,
  "selectin": 14078,
  "selective": 9348,
  "self": 17888,
  "sen": 27280,
  "sensi": 3905,
  "sensing": 24312,
  "sensitive": 5558,
  "sensitivity": 8165,
  "sensitized": 22738,
  "seous": 13293,
  "sep": 17928,
  "separ": 26490,
  "sequ": 1627,
  "sequencing": 25781,
  "sequent": 15458,
  "sequently": 7839,
  "ser": 740,
  "series": 23806,
  "serin": 22863,
  "serine": 16080,
  "sertion": 25802,
  "serum": 21592,
  "service": 27687,
  "ses": 2206,
  "sess": 3546,
  "sessing": 19873,
  "session": 19825,
  "sessive": 18287,
  "sessment": 6810,
  "set": 2337,
  "seud": 3618,
  "seven": 8922,
  "severe": 16214,
  "sex": 17434,
  "sey": 26025,
  "sh": 3647,
  "shaped": 9282,
  "she": 15682,
  "sheet": 21257,
  "shell": 15635,
  "shif": 23504,
  "shift": 20526,
  "shock": 18229,
  "short": 26597,
  "shot": 21165,
  "si": 362,
  "siRNA": 25492,
  "sia": 5461,
  "sial": 8142,
  "sian": 6394,
  "sians": 21996,
  "sibility": 9131,
  "sible": 1203,
  "sibly": 14955,
  "side": 5507,
  "sided": 12712,
  "sied": 22099,
  "siella": 16497,
  "sient": 16654,
  "sies": 5520,
  "sign": 16522,
  "signal": 25271,
  "significant": 18813,
  "sil": 7953,
  "sile": 27268,
  "silon": 10317,
  "silyl": 26211,
  "sim": 14410,
  "sin": 4453,
  "sing": 1531,
  "single": 21825,
  "sion": 446,
  "sions": 22007,
  "sis": 1995,
  "site": 9096,
  "sities": 20364,
  "sition": 21718,
  "situ": 23658,
  "sive": 890,
  "siveness": 11492,
  "sivity": 17269,
  "six": 7700,
  "size": 10914,
  "sized": 5780,
  "sk": 8456,
  "skin": 26955,
  "sl": 23309,
  "slice": 23402,
  "sm": 6144,
  "small": 9771,
  "smokers": 18249,
  "smoking": 25484,
  "smooth": 26798,
  "sn": 21467,
  "so": 712,
  "social": 24045,
  "sodium": 23765,
  "sol": 17941,
  "solid": 22910,
  "soluble": 11776,
  "son": 10388,
  "soni": 20187,
  "source": 23284,
  "sover": 11301,
  "sp": 2691,
  "space": 13857,
  "sparing": 19521,
  "spatial": 27983,
  "spe": 13434,
  "speaking": 24216,
  "spec": 1735,
  "special": 19613,
  "specially": 23089,
  "species": 13666,
  "specific": 2019,
  "specificity": 26902,
  "spectral": 28262,
  "spectrum": 16991,
  "speed": 19376,
  "spin": 21378,
  "spot": 24394,
  "spring": 7963,
  "squ": 10474,
  "square": 13464,
  "ss": 7675,
  "st": 458,
  "stable": 8448,
  "stage": 5450,
  "stained": 18793,
  "stalk": 25121,
  "stance": 27253,
  "stand": 1835,
  "standard": 14455,
  "standardized": 26070,
  "standing": 7590,
  "stant": 22300,
  "state": 5259,
  "static": 8691,
  "station": 25836,
  "stay": 20892,
  "ste": 5017,
  "stead": 16115,
  "stem": 10288,
  "sten": 22821,
  "stent": 22196,
  "step": 8202,
  "ster": 12905,
  "steroidal": 23186,
  "sthetic": 24884,
  "stim": 3433,
  "stimulated": 5987,
  "stimulating": 10959,
  "stimulation": 17438,
  "stit": 2740,
  "stituted": 9277,
  "stitution": 25383,
  "stomy": 21132,
  "stone": 16346,
  "stones": 23556,
  "str": 1475,
  "strain": 21913,
  "strand": 14526,
  "stranded": 12020,
  "strate": 18035,
  "stream": 5181,
  "stress": 19508,
  "stressed": 28378,
  "string": 24530,
  "stroke": 20858,
  "struct": 10379,
  "structive": 22012,
  "structure": 25031,
  "structured": 14010,
  "stry": 17456,
  "sts": 10684,
  "study": 21186,
  "styrene": 16709,
  "su": 23648,
  "sub": 4860,
  "subject": 22745,
  "substituted": 11139,
  "substrate": 24717,
  "subunit": 14370,
  "such": 16131,
  "sue": 10579,
  "sues": 28051,
  "sulf": 8092,
  "sulfate": 23174,
  "sulph": 24950,
  "sum": 17571,
  "sup": 6838,
  "super": 21835,
  "supplemented": 22930,
  "supported": 19498,
  "sur": 9285,
  "surface": 12929,
  "surgery": 23751,
  "surgical": 15834,
  "sus": 11782,
  "susceptible": 22193,
  "sw": 7006,
  "swit": 26858,
  "sy": 1058,
  "syc": 19711,
  "sycINFO": 21860,
  "sych": 1429,
  "syn": 9897,
  "synchron": 28176,
  "synuclein": 22489,
  "system": 14208,
  "systolic": 20700,
  "t": 83,
  "tDNA": 12708,
  "tRNA": 20444,
  "ta": 2576,
  "table": 15552,
  "tac": 22835,
  "tag": 14156,
  "tage": 5921,
  "tagged": 22449,
  "tail": 16164,
  "tailed": 22711,
  "tain": 639,
  "tained": 1013,
  "taining": 1680,
  "take": 2708,
  "taking": 26883,
  "tal": 619,
  "tality": 1749,
  "talk": 25165,
  "tance": 21967,
  "tandem": 19686,
  "taneous": 3393,
  "target": 8892,
  "targeted": 14725,
  "targeting": 24492,
  "tase": 4297,
  "task": 26394,
  "tation": 3029,
  "tau": 22975,
  "tavidin": 26706,
  "te": 417,
  "tead": 8730,
  "ted": 398,
  "tee": 11131,
  "teen": 4234,
  "tees": 25917,
  "tegr": 2111,
  "tein": 597,
  "teine": 5643,
  "tel": 21880,
  "tem": 8276,
  "temperature": 13337,
  "temporal": 18951,
  "tempts": 28587,
  "ten": 742,
  "tenance": 4781,
  "tending": 11841,
  "tene": 14753,
  "tened": 27119,
  "teness": 24207,
  "tening": 19791,
  "tenosis": 13546,
  "tense": 20305,
  "tensi": 17116,
  "tensin": 24373,
  "tension": 2243,
  "tensive": 2569,
  "tensives": 22891,
  "tent": 7347,
  "tention": 4706,
  "tentional": 25355,
  "ter": 322,
  "tera": 15326,
  "teral": 7666,
  "terase": 8661,
  "terations": 19464,
  "tered": 2855,
  "teric": 18911,
  "teries": 18164,
  "tering": 4079,
  "terior": 1956,
  "terious": 13820,
  "term": 1584,
  "termin": 10992,
  "terminal": 4459,
  "terminus": 14576,
  "tern": 863,
  "ternal": 3298,
  "teroid": 24333,
  "teroidal": 18849,
  "terol": 2578,
  "terolateral": 17647,
  "terone": 12117,
  "ters": 1936,
  "terstitial": 21007,
  "tert": 22987,
  "tery": 10296,
  "tes": 6971,
  "test": 5832,
  "testosterone": 22808,
  "tests": 25394,
  "tet": 6766,
  "tetr": 27889,
  "tetra": 10085,
  "tetrad": 25430,
  "tetrahydro": 15752,
  "tetram": 26697,
  "tex": 2136,
  "text": 24259,
  "tezomib": 24960,
  "th": 388,
  "thal": 3421,
  "thalamic": 28772,
  "thalassemia": 23456,
  "thanol": 13404,
  "thanolamine": 19103,
  "that": 23778,
  "thaw": 19559,
  "the": 3785,
  "thel": 6586,
  "theless": 7922,
  "then": 8229,
  "ther": 534,
  "therapeutic": 25011,
  "therapy": 19117,
  "thermal": 15963,
  "thern": 6930,
  "thi": 10260,
  "thiazol": 28041,
  "thick": 15187,
  "thickness": 17698,
  "thio": 17452,
  "third": 13883,
  "thirds": 19470,
  "thma": 19053,
  "thood": 10731,
  "thora": 24434,
  "thoracic": 16910,
  "though": 1456,
  "threat": 10762,
  "threatening": 10941,
  "three": 7354,
  "threonine": 23236,
  "threshold": 20112,
  "thromb": 11311,
  "thrombin": 10605,
  "thrombotic": 14446,
  "through": 8690,
  "throughput": 12863,
  "ths": 1123,
  "thy": 21177,
  "thyl": 21837,
  "thym": 12161,
  "thymidine": 16699,
  "thyroid": 22353,
  "thys": 19360,
  "thysm": 22155,
  "ti": 261,
  "tia": 12033,
  "tial": 2281,
  "tially": 4198,
  "tian": 17228,
  "tiary": 7323,
  "tiazem": 20174,
  "tib": 26145,
  "tic": 349,
  "tica": 19162,
  "tical": 913,
  "tically": 1767,
  "ticals": 14415,
  "tice": 2100,
  "tices": 18225,
  "ticism": 21626,
  "tick": 19703,
  "tics": 1073,
  "ticular": 27773,
  "tid": 3038,
  "tida": 25937,
  "tidal": 22025,
  "tide": 14094,
  "tidine": 8331,
  "tier": 27112,
  "ties": 1213,
  "tif": 2512,
  "tification": 11682,
  "tificial": 22591,
  "tified": 10046,
  "tiform": 22587,
  "tig": 833,
  "tigens": 19996,
  "tigm": 18971,
  "tigmatism": 20728,
  "tigo": 19554,
  "tigra": 9013,
  "tigraphic": 25193,
  "tigraphy": 10422,
  "tii": 19370,
  "til": 982,
  "tilage": 28212,
  "tilb": 23632,
  "tilbene": 28297,
  "tile": 3701,
  "tiles": 14521,
  "tilis": 13417,
  "tility": 3666,
  "tilization": 18445,
  "tilizing": 25000,
  "till": 2528,
  "tillation": 14046,
  "tilled": 17562,
  "tim": 605,
  "timal": 7778,
  "time": 2981,
  "times": 7684,
  "timicrobial": 20181,
  "timization": 20675,
  "timulation": 11918,
  "timulatory": 21370,
  "tin": 802,
  "tinent": 17145,
  "ting": 736,
  "tingu": 5150,
  "tiometry": 19956,
  "tion": 281,
  "tional": 2797,
  "tions": 521,
  "tious": 5106,
  "tip": 19335,
  "tipation": 15650,
  "tiple": 6882,
  "tir": 22396,
  "tis": 1331,
  "tise": 13924,
  "tised": 26003,
  "tising": 21021,
  "tism": 9050,
  "tisol": 6626,
  "tisone": 16264,
  "tissue": 13043,
  "tist": 26392,
  "tistic": 20500,
  "tists": 21656,
  "tit": 1000,
  "tite": 24011,
  "titial": 7231,
  "tition": 4481,
  "titions": 25431,
  "titis": 6407,
  "titive": 8769,
  "titude": 11623,
  "titudes": 21499,
  "titution": 26751,
  "tium": 9745,
  "tiv": 455,
  "tivariate": 4325,
  "tivated": 19583,
  "tivation": 6415,
  "tive": 404,
  "tively": 12134,
  "tiveness": 3204,
  "tives": 4268,
  "tiviral": 8630,
  "tivirus": 27036,
  "tivities": 10567,
  "tivity": 1083,
  "tization": 7482,
  "tized": 6051,
  "tizing": 12015,
  "tle": 2405,
  "tles": 26252,
  "tman": 25399,
  "to": 1761,
  "toc": 11434,
  "tocopherol": 15782,
  "together": 16058,
  "tol": 8168,
  "tolamine": 28069,
  "toler": 17510,
  "tolerant": 22936,
  "tolerated": 24313,
  "toli": 17359,
  "tom": 843,
  "tomic": 19114,
  "tomies": 21641,
  "tomized": 24218,
  "tomy": 1702,
  "tomyces": 16767,
  "tomycin": 19761,
  "ton": 4208,
  "tonic": 15938,
  "took": 22204,
  "top": 12851,
  "tor": 461,
  "tored": 8912,
  "tories": 13789,
  "tors": 2209,
  "tory": 1610,
  "tosecond": 20224,
  "tosis": 18789,
  "total": 12593,
  "tox": 5296,
  "toxic": 12040,
  "toxicity": 16043,
  "toxin": 16616,
  "toz": 14670,
  "tozotocin": 15844,
  "tr": 326,
  "tra": 3847,
  "trac": 4603,
  "tracellular": 12389,
  "tract": 12871,
  "tractant": 22678,
  "tracted": 9544,
  "traction": 6112,
  "tractor": 22732,
  "tracts": 17729,
  "tradiol": 6107,
  "trained": 15013,
  "training": 18967,
  "tral": 6610,
  "tran": 10276,
  "trans": 1926,
  "transcriptional": 20186,
  "transf": 14677,
  "transfected": 18823,
  "transfer": 4194,
  "transferase": 5065,
  "transferases": 17087,
  "transformation": 18181,
  "transformed": 17181,
  "transfusion": 27835,
  "transl": 10547,
  "translated": 18724,
  "translational": 14852,
  "transplant": 10848,
  "transplantation": 13689,
  "transport": 19313,
  "transporter": 26659,
  "trap": 26845,
  "trast": 11624,
  "trate": 17501,
  "trated": 17312,
  "trating": 27730,
  "tration": 3739,
  "trauma": 23140,
  "traumatic": 9549,
  "tre": 20864,
  "treat": 15121,
  "treated": 2427,
  "treatment": 3570,
  "trexone": 25979,
  "tri": 8796,
  "trial": 10495,
  "triatal": 20814,
  "triax": 24510,
  "triaxone": 24729,
  "triaz": 26068,
  "trib": 1405,
  "tribution": 26296,
  "tric": 1457,
  "trical": 15704,
  "trifluor": 21268,
  "trig": 12162,
  "triggered": 22027,
  "triglycer": 20881,
  "triglycerid": 22503,
  "trim": 15448,
  "trimester": 23175,
  "trimethyl": 19260,
  "trin": 8375,
  "triphosphate": 26533,
  "tris": 17236,
  "trium": 28669,
  "tro": 468,
  "troduction": 18515,
  "troke": 13156,
  "trol": 643,
  "trolled": 13545,
  "trom": 3192,
  "tron": 6117,
  "trone": 27671,
  "tronic": 11253,
  "trop": 28654,
  "troph": 2970,
  "trophic": 7189,
  "trophin": 16800,
  "trophot": 11790,
  "trophy": 5665,
  "tropical": 28047,
  "tropin": 19483,
  "tros": 1792,
  "troscop": 3161,
  "troscopy": 20902,
  "trosp": 26649,
  "trover": 6643,
  "truct": 3182,
  "tructive": 24813,
  "tructural": 6270,
  "tructure": 6474,
  "tructured": 15747,
  "tructures": 10482,
  "trum": 11179,
  "try": 9911,
  "trypsin": 21511,
  "tryptamine": 17794,
  "tryptophan": 25013,
  "ts": 351,
  "tt": 9822,
  "ttp": 18125,
  "tual": 7161,
  "tub": 6007,
  "tube": 25390,
  "tubulin": 21690,
  "tum": 16009,
  "tumor": 6412,
  "tumour": 22860,
  "tun": 22882,
  "tur": 23568,
  "ture": 2054,
  "tured": 21613,
  "tures": 6582,
  "turing": 25902,
  "turn": 23924,
  "tus": 15799,
  "tw": 16890,
  "two": 6094,
  "ty": 1268,
  "type": 2423,
  "types": 27273,
  "tyrosine": 17982,
  "tz": 14772,
  "u": 84,
  "ua": 13806,
  "ual": 685,
  "ualitative": 17349,
  "uality": 7531,
  "ually": 2050,
  "uan": 12459,
  "uary": 4069,
  "uate": 8620,
  "uated": 16014,
  "uates": 16283,
  "uation": 6921,
  "ub": 431,
  "ubated": 6496,
  "ubation": 3798,
  "ube": 24316,
  "uber": 13077,
  "uberculosis": 19889,
  "ubertal": 17376,
  "ubi": 6783,
  "ubicin": 8415,
  "ubin": 10292,
  "ubiquit": 28124,
  "uble": 2109,
  "ublic": 13302,
  "ubric": 23245,
  "ubstituted": 22046,
  "ubular": 27849,
  "uc": 335,
  "ucal": 27968,
  "uccess": 9109,
  "uccessful": 9969,
  "uccin": 16926,
  "uce": 1490,
  "ucella": 25131,
  "ucellosis": 27456,
  "ucent": 26851,
  "uch": 3803,
  "uchen": 26856,
  "uchenne": 28040,
  "ucid": 4496,
  "ucifer": 11662,
  "uciferase": 12790,
  "ucin": 16354,
  "ucine": 15199,
  "uck": 14902,
  "ucker": 26599,
  "ucl": 11170,
  "ucle": 1046,
  "uclear": 7420,
  "ucleated": 27491,
  "uclein": 20497,
  "ucleotide": 10233,
  "uconazole": 19350,
  "ucosal": 13792,
  "ucose": 13379,
  "uct": 797,
  "uctal": 20600,
  "uction": 2248,
  "uctive": 5061,
  "uculline": 28626,
  "ud": 405,
  "udal": 27186,
  "udden": 8090,
  "ude": 1762,
  "uded": 3131,
  "udent": 26669,
  "uder": 28742,
  "udes": 5245,
  "udesonide": 25907,
  "udge": 9612,
  "udi": 665,
  "udied": 22737,
  "udies": 5754,
  "udin": 15965,
  "udine": 15277,
  "uding": 6561,
  "udit": 5477,
  "uditory": 24583,
  "udy": 3969,
  "ue": 688,
  "ued": 7865,
  "uel": 21350,
  "uene": 28136,
  "uent": 9371,
  "uents": 8313,
  "uer": 14671,
  "ues": 1192,
  "uese": 24534,
  "uf": 6464,
  "ufact": 7978,
  "uff": 3212,
  "ufficient": 8597,
  "uffs": 27309,
  "ug": 439,
  "uge": 9421,
  "ugg": 20368,
  "ugh": 684,
  "ught": 14859,
  "ughter": 14106,
  "uginosa": 9145,
  "uing": 12082,
  "uistic": 18047,
  "uit": 3220,
  "uitable": 25219,
  "uitive": 24183,
  "uits": 8513,
  "uity": 6756,
  "uk": 2046,
  "ukary": 9318,
  "ul": 302,
  "ula": 3492,
  "ulae": 12840,
  "ulans": 27355,
  "ulant": 24550,
  "ular": 467,
  "ularly": 17407,
  "ulary": 23102,
  "ulas": 11054,
  "ulate": 2926,
  "ulated": 1076,
  "ulates": 7081,
  "ulating": 2809,
  "ulation": 642,
  "ulations": 1704,
  "ulative": 6540,
  "ulator": 8701,
  "ulators": 11699,
  "ulatory": 3760,
  "uld": 752,
  "ule": 1981,
  "ulectomy": 24841,
  "uled": 10459,
  "ulence": 18469,
  "ulent": 13860,
  "ules": 1714,
  "ulex": 28148,
  "ulf": 1973,
  "uli": 7373,
  "uliar": 15490,
  "ulic": 13290,
  "ulin": 1415,
  "uling": 22477,
  "ulinic": 27997,
  "ulins": 13222,
  "ulinum": 15488,
  "ulitis": 16185,
  "ull": 2062,
  "ullary": 11501,
  "ulline": 20555,
  "ulmonary": 5377,
  "ulo": 13415,
  "uloplasty": 23247,
  "ulos": 9065,
  "ulose": 7148,
  "uloskeletal": 11656,
  "ulous": 15378,
  "ulph": 14585,
  "uls": 8546,
  "ulse": 10841,
  "ulsification": 20772,
  "ulsion": 6524,
  "ulsions": 16657,
  "ulsive": 9562,
  "ult": 771,
  "ultaneous": 3343,
  "ulties": 6990,
  "ultry": 16475,
  "ults": 1692,
  "ultural": 8315,
  "ulture": 8352,
  "ultured": 13763,
  "ultures": 18082,
  "ulty": 10249,
  "ulum": 5286,
  "ulus": 5630,
  "uly": 7692,
  "um": 341,
  "uma": 11580,
  "umab": 6606,
  "uman": 4429,
  "umarin": 18524,
  "umatic": 7683,
  "umb": 977,
  "umbar": 5802,
  "umbens": 17409,
  "umber": 13203,
  "umbers": 25929,
  "ume": 18273,
  "umed": 26232,
  "umen": 13622,
  "ument": 2808,
  "umental": 13781,
  "uments": 6509,
  "umer": 3603,
  "umes": 27098,
  "umin": 2536,
  "uminal": 10800,
  "umine": 28432,
  "uming": 15496,
  "umn": 20530,
  "umor": 4681,
  "ump": 3524,
  "umps": 18486,
  "umption": 19410,
  "umptions": 13717,
  "umptive": 23741,
  "ums": 28241,
  "umulation": 16322,
  "umulative": 21455,
  "un": 324,
  "una": 20564,
  "unar": 21446,
  "unate": 24616,
  "unately": 13863,
  "unc": 569,
  "unced": 6979,
  "unch": 18300,
  "unched": 28775,
  "uncil": 18202,
  "unction": 703,
  "unctional": 5875,
  "unctions": 2592,
  "unctiv": 9881,
  "uncture": 7517,
  "und": 422,
  "under": 20635,
  "undred": 4602,
  "une": 6815,
  "ung": 1023,
  "ungal": 10092,
  "unic": 11778,
  "union": 25733,
  "unit": 10518,
  "units": 26351,
  "unk": 9180,
  "unsaturated": 13962,
  "unt": 6155,
  "untary": 21095,
  "unted": 13189,
  "unting": 10460,
  "untington": 22213,
  "unts": 19440,
  "uod": 5990,
  "uoden": 19232,
  "uodenal": 16897,
  "uous": 5868,
  "up": 382,
  "upational": 17850,
  "uph": 28114,
  "upl": 14699,
  "upro": 16409,
  "uprofen": 17125,
  "ups": 17552,
  "uptake": 15744,
  "upuncture": 10965,
  "ur": 313,
  "ura": 7996,
  "urable": 9691,
  "uracy": 17230,
  "ural": 1003,
  "urally": 5651,
  "uran": 10758,
  "urance": 6054,
  "urane": 9713,
  "urans": 28769,
  "urate": 11709,
  "uration": 1732,
  "urations": 9894,
  "urb": 3133,
  "urban": 20457,
  "urbed": 28883,
  "urc": 10548,
  "urcumin": 27779,
  "ure": 393,
  "urea": 10803,
  "ured": 3147,
  "urement": 28338,
  "ures": 717,
  "uresis": 16503,
  "uret": 25652,
  "ureteral": 28805,
  "ureth": 11278,
  "urethane": 23090,
  "urethral": 15820,
  "uretic": 8758,
  "uretics": 19786,
  "ureus": 6462,
  "urfac": 25706,
  "urg": 2638,
  "urgery": 6060,
  "urgical": 4647,
  "uria": 5531,
  "uric": 9197,
  "uridine": 16449,
  "uries": 20360,
  "urin": 11592,
  "urine": 4486,
  "uring": 651,
  "urinol": 25188,
  "urip": 15611,
  "uris": 22635,
  "urities": 22956,
  "urition": 16866,
  "urity": 7087,
  "urium": 12257,
  "urization": 26433,
  "urized": 20168,
  "urk": 13979,
  "urkat": 24078,
  "urn": 2302,
  "urnal": 9275,
  "urning": 18598,
  "uro": 981,
  "uron": 6282,
  "uronal": 15279,
  "uronic": 13819,
  "uronium": 20610,
  "urons": 11507,
  "urred": 19636,
  "urren": 940,
  "urrence": 2299,
  "urrences": 10639,
  "urrent": 1161,
  "urrents": 9357,
  "urring": 21142,
  "urs": 3714,
  "urt": 24873,
  "urther": 1099,
  "urus": 19657,
  "ury": 4727,
  "urys": 4165,
  "us": 304,
  "usal": 12376,
  "usate": 21194,
  "usc": 4048,
  "uscular": 6420,
  "use": 1010,
  "used": 3767,
  "users": 16875,
  "uses": 17223,
  "ush": 7262,
  "ushed": 24139,
  "ushes": 24726,
  "ushing": 11372,
  "using": 9571,
  "usion": 914,
  "usions": 17287,
  "usive": 4373,
  "usp": 23153,
  "uspid": 13909,
  "uss": 21158,
  "ussis": 13487,
  "ussus": 26517,
  "ust": 2006,
  "usted": 4139,
  "uster": 16162,
  "ustered": 15718,
  "usters": 22991,
  "usting": 8909,
  "ustion": 12299,
  "ustment": 26021,
  "ustr": 2388,
  "usts": 26410,
  "usual": 25940,
  "ut": 340,
  "utable": 9889,
  "utamide": 26836,
  "utaneous": 2575,
  "utation": 27017,
  "utational": 24181,
  "utch": 12892,
  "ute": 922,
  "uteal": 24783,
  "uted": 1694,
  "uter": 2726,
  "uterine": 10311,
  "uters": 25827,
  "utes": 2525,
  "uth": 6262,
  "uthenium": 18425,
  "uthor": 10798,
  "uthors": 20254,
  "utic": 17061,
  "util": 28810,
  "utin": 15345,
  "uting": 5210,
  "ution": 845,
  "utional": 14140,
  "utions": 2517,
  "utious": 27106,
  "utive": 2824,
  "utr": 1864,
  "utral": 19298,
  "utrient": 18204,
  "utrients": 24934,
  "utrition": 7638,
  "utroph": 17424,
  "utrophil": 22674,
  "uts": 17605,
  "utter": 17408,
  "uture": 2443,
  "uty": 18855,
  "utz": 26159,
  "uum": 24235,
  "uv": 7604,
  "uvant": 5126,
  "uvants": 25496,
  "uvate": 10604,
  "ux": 11227,
  "uz": 7390,
  "uzi": 17180,
  "uzumab": 16876,
  "uzz": 16362,
  "uzzy": 21204,
  "v": 85,
  "va": 7927,
  "vable": 18122,
  "vac": 10313,
  "vaccinated": 25759,
  "vacizumab": 16939,
  "vaginal": 18689,
  "vail": 14619,
  "val": 1145,
  "valence": 8160,
  "valent": 9085,
  "validation": 26429,
  "valu": 4041,
  "valuating": 24871,
  "valuation": 5502,
  "value": 15008,
  "values": 20233,
  "van": 27875,
  "vance": 6568,
  "vant": 2293,
  "var": 18488,
  "vari": 8368,
  "variable": 28398,
  "vas": 4658,
  "vascular": 4359,
  "vasive": 5020,
  "vastatin": 10671,
  "vated": 11194,
  "vation": 8615,
  "ve": 298,
  "vec": 24093,
  "ved": 565,
  "vedilol": 28651,
  "vel": 436,
  "velength": 20417,
  "velop": 667,
  "veloped": 19654,
  "veloping": 21797,
  "velopment": 6950,
  "velopmental": 12584,
  "vement": 1473,
  "ven": 731,
  "veness": 5871,
  "venous": 3129,
  "vent": 1672,
  "ventful": 17827,
  "vention": 1214,
  "ventional": 2820,
  "ventions": 3517,
  "ventive": 7207,
  "ventricular": 12248,
  "vents": 6534,
  "veolar": 5937,
  "ver": 384,
  "verage": 1950,
  "verages": 20775,
  "veratrol": 15354,
  "verbal": 23126,
  "vere": 1470,
  "vered": 8480,
  "verex": 4591,
  "verexpression": 16051,
  "vern": 12393,
  "vers": 2167,
  "versal": 9311,
  "verse": 1547,
  "versely": 10504,
  "version": 5820,
  "versity": 3335,
  "versus": 15134,
  "verte": 10268,
  "vertebr": 15962,
  "vertebral": 14876,
  "verted": 13675,
  "verty": 21603,
  "very": 17083,
  "ves": 1423,
  "vessel": 20627,
  "vestig": 9633,
  "vey": 24269,
  "vi": 558,
  "via": 19161,
  "vian": 9460,
  "viated": 27118,
  "vic": 2099,
  "vice": 2744,
  "vices": 2676,
  "vid": 776,
  "vided": 3732,
  "vidence": 7296,
  "vidin": 17164,
  "viding": 16190,
  "vidual": 1367,
  "vidually": 11508,
  "view": 988,
  "vimetric": 25809,
  "vin": 18301,
  "ving": 1467,
  "vinyl": 12983,
  "violet": 26820,
  "vious": 1264,
  "vir": 14601,
  "viral": 8255,
  "viron": 1709,
  "virus": 6955,
  "vis": 4083,
  "vised": 27707,
  "visible": 23947,
  "vision": 5240,
  "visions": 15527,
  "visual": 25579,
  "vit": 7727,
  "vitamin": 12598,
  "vities": 15257,
  "vitro": 17662,
  "vity": 3891,
  "viv": 17756,
  "vival": 10358,
  "vive": 14606,
  "vivo": 21654,
  "vivors": 23485,
  "vix": 12825,
  "vo": 27420,
  "voflurane": 17664,
  "vol": 9038,
  "voltage": 24100,
  "volume": 12411,
  "volution": 15502,
  "volved": 25158,
  "volvement": 19327,
  "vs": 17899,
  "vular": 13474,
  "vus": 19093,
  "w": 86,
  "wa": 14634,
  "wake": 28842,
  "wall": 18962,
  "walled": 19983,
  "wan": 9707,
  "wann": 12504,
  "war": 16364,
  "ward": 1897,
  "wards": 11724,
  "ware": 6286,
  "warf": 24204,
  "was": 26220,
  "water": 4252,
  "waters": 28191,
  "wave": 7122,
  "wavelength": 21400,
  "way": 3320,
  "ways": 5010,
  "we": 531,
  "weed": 22688,
  "week": 4986,
  "weekly": 25924,
  "weeks": 25402,
  "ween": 568,
  "weight": 5133,
  "weighted": 8802,
  "well": 11125,
  "welling": 13306,
  "went": 1711,
  "wenty": 3631,
  "were": 24424,
  "wes": 15276,
  "west": 16788,
  "western": 17808,
  "wh": 5669,
  "what": 12036,
  "where": 13311,
  "which": 14698,
  "while": 11862,
  "white": 21457,
  "wich": 17548,
  "wid": 14851,
  "wide": 4751,
  "width": 16207,
  "win": 24938,
  "wing": 10814,
  "wire": 22719,
  "wise": 5772,
  "with": 6909,
  "within": 24008,
  "without": 20611,
  "witter": 25259,
  "wk": 17759,
  "wo": 644,
  "wood": 20290,
  "word": 28385,
  "words": 24760,
  "work": 2595,
  "world": 18355,
  "worm": 13253,
  "worms": 28625,
  "worth": 23017,
  "wt": 19089,
  "ww": 13435,
  "www": 22838,
  "x": 87,
  "xanthine": 28028,
  "xia": 10025,
  "xiety": 3886,
  "xim": 1107,
  "ximab": 12732,
  "ximal": 3931,
  "ximately": 8637,
  "xime": 21465,
  "ximide": 19553,
  "ximum": 12896,
  "xin": 7477,
  "xine": 14607,
  "xt": 6740,
  "xual": 12758,
  "xy": 14903,
  "xyl": 19592,
  "y": 88,
  "ya": 15272,
  "yan": 15129,
  "yanodine": 26491,
  "yc": 3805,
  "ycardia": 8114,
  "ych": 20222,
  "ycin": 4911,
  "ycl": 5202,
  "ycle": 19538,
  "yclic": 11906,
  "yclo": 28339,
  "yclovir": 26569,
  "ye": 11931,
  "year": 1720,
  "years": 9948,
  "yel": 8443,
  "yes": 27814,
  "yg": 3417,
  "ygdal": 11116,
  "ygen": 1998,
  "ying": 7014,
  "ykinin": 13750,
  "yl": 494,
  "ylase": 7237,
  "ylate": 5947,
  "ylated": 3942,
  "ylation": 2177,
  "yle": 4582,
  "yled": 26177,
  "ylene": 12399,
  "yles": 16308,
  "yletic": 27354,
  "ylic": 10692,
  "yline": 19203,
  "yll": 20043,
  "ylline": 25572,
  "ylobacter": 16898,
  "yloid": 24739,
  "ylon": 27529,
  "yly": 24663,
  "ylyl": 20269,
  "ym": 626,
  "ymb": 22505,
  "ymethyl": 13611,
  "ymia": 28829,
  "ymic": 18956,
  "ymmet": 5248,
  "ymmetric": 6946,
  "ymmetrical": 13429,
  "ymmetry": 10647,
  "ymn": 26535,
  "ymp": 1118,
  "ympathetic": 17216,
  "ymph": 10061,
  "ympt": 22729,
  "ymptom": 1197,
  "ymptomatic": 5640,
  "yn": 580,
  "ynaec": 18499,
  "ynam": 9156,
  "ynamic": 1638,
  "ynamically": 19392,
  "ynaptic": 8087,
  "ynch": 17656,
  "ynchron": 14301,
  "ynchronization": 24691,
  "ynchus": 25537,
  "yne": 11499,
  "ynec": 9400,
  "ynes": 23254,
  "ynt": 3233,
  "ynthesi": 22431,
  "ynthesis": 4304,
  "ynthetic": 8032,
  "ynure": 26568,
  "ynyl": 21637,
  "yo": 24079,
  "yoto": 24902,
  "yp": 496,
  "ype": 842,
  "ypes": 1514,
  "yph": 9624,
  "yphilis": 17366,
  "ypical": 6435,
  "ypically": 28310,
  "ypro": 24167,
  "ypsin": 13138,
  "ypt": 5019,
  "yptamine": 16407,
  "ypti": 23804,
  "yptoph": 9716,
  "yptophan": 10156,
  "yr": 1727,
  "yramidal": 26677,
  "yrate": 12754,
  "yrene": 12436,
  "yrib": 18949,
  "yric": 13286,
  "yrid": 19794,
  "yridamole": 23933,
  "yridine": 22380,
  "yrin": 9023,
  "yrinth": 26229,
  "yrist": 21580,
  "yro": 2037,
  "yroid": 2438,
  "yroidism": 10104,
  "yron": 17583,
  "yronine": 18909,
  "yrosine": 21280,
  "yryl": 18128,
  "ys": 373,
  "yseal": 17306,
  "ysed": 22282,
  "yses": 9359,
  "ysi": 1854,
  "ysical": 7096,
  "ysiological": 8330,
  "ysis": 690,
  "ysmal": 16242,
  "yst": 591,
  "ystal": 12372,
  "ystall": 10339,
  "ystalline": 26124,
  "ystals": 14312,
  "ystem": 708,
  "yster": 10643,
  "ysteroid": 22298,
  "ystic": 22497,
  "ystitis": 22565,
  "ystole": 23693,
  "ystolic": 5098,
  "ysts": 9848,
  "yt": 659,
  "ytes": 9220,
  "ythem": 8302,
  "ytherapy": 15544,
  "ytic": 3899,
  "ytical": 16663,
  "ytoin": 18009,
  "ytoplasmic": 23634,
  "yx": 21501,
  "yz": 21334,
  "yzed": 6727,
  "yzer": 28044,
  "z": 89,
  "za": 20676,
  "zard": 5014,
  "zation": 4753,
  "ze": 2736,
  "zed": 1127,
  "zen": 8107,
  "zens": 22763,
  "zer": 8251,
  "zerland": 20100,
  "zero": 28010,
  "zers": 17817,
  "zes": 10469,
  "zheimer": 6187,
  "zid": 22974,
  "zing": 4239,
  "zo": 13447,
  "zole": 25257,
  "zolid": 28837,
  "zom": 23421,
  "zomib": 23906,
  "zon": 17644,
  "zone": 11669,
  "zym": 1182,
  "zymatic": 15561,
  "zyme": 5417,
  "zymes": 11076,
  "{": 90,
  "|": 91,
  "}": 92,
  "~": 93,
  "¡": 94,
  "¢": 95,
  "£": 96,
  "¤": 97,
  "¥": 98,
  "¦": 99,
  "§": 100,
  "¨": 101,
  "©": 102,
  "ª": 103,
  "«": 104,
  "¬": 105,
  "®": 106,
  "¯": 107,
  "°": 108,
  "±": 109,
  "²": 110,
  "³": 111,
  "´": 112,
  "µ": 113,
  "¶": 114,
  "·": 115,
  "¸": 116,
  "¹": 117,
  "º": 118,
  "»": 119,
  "¼": 120,
  "½": 121,
  "¾": 122,
  "¿": 123,
  "À": 124,
  "Á": 125,
  "Â": 126,
  "Â®": 8419,
  "Â°": 3542,
  "Â°,": 21269,
  "Â±": 1502,
  "Â²": 17779,
  "Âµ": 27571,
  "Â·": 4104,
  "Â·Â·": 22624,
  "Â¹": 21525,
  "Ã": 127,
  "Ã¡": 16714,
  "Ã£": 18530,
  "Ã£o": 19019,
  "Ã¤": 24132,
  "Ã§": 18933,
  "Ã§et": 26624,
  "Ã¨": 24190,
  "Ã©": 7334,
  "Ã¯": 15429,
  "Ã¯ve": 16339,
  "Ã³": 18485,
  "Ã¶": 10164,
  "Ã¶gren": 22690,
  "Ã¸": 28368,
  "Ã¼": 12053,
  "Ã¼ller": 20285,
  "ÃĹ": 5247,
  "ÃŃ": 19552,
  "Ä": 128,
  "Å": 129,
  "Æ": 130,
  "Ç": 131,
  "È": 132,
  "É": 133,
  "Ê": 134,
  "Ë": 135,
  "Ì": 136,
  "Í": 137,
  "Î": 138,
  "Î±": 3745,
  "Î²": 3228,
  "Î³": 8263,
  "Î´": 17898,
  "Îµ": 26534,
  "Îº": 8137,
  "ÎºB": 9037,
  "Î¼": 8790,
  "Î¼M": 25609,
  "Î¼g": 18720,
  "Î¼m": 27660,
  "ÎĶ": 14055,
  "Ï": 139,
  "ÏĢ": 19195,
  "Ïĩ": 24589,
  "Ïī": 27227,
  "Ð": 140,
  "Ñ": 141,
  "Ò": 142,
  "Ó": 143,
  "Ô": 144,
  "Õ": 145,
  "Ö": 146,
  "×": 147,
  "Ø": 148,
  "Ù": 149,
  "Ú": 150,
  "Û": 151,
  "Ü": 152,
  "Ý": 153,
  "Þ": 154,
  "ß": 155,
  "à": 156,
  "á": 157,
  "â": 158,
  "âĢ": 6212,
  "âĢ¢": 23907,
  "âĢĳ": 8937,
  "âĢĵ": 25118,
  "âģ": 12317,
  "âģº": 24262,
  "âģ»": 20109,
  "âĤ": 8063,
  "âĤģ": 27918,
  "âĤĤ": 13195,
  "âĤĥ": 26179,
  "âĦ": 15328,
  "âĦ¢": 15890,
  "âĨĴ": 20281,
  "âĪ": 16710,
  "âĪ¼": 19418,
  "âī": 8986,
  "âī¤": 25397,
  "âī¥": 26213,
  "ã": 159,
  "ä": 160,
  "å": 161,
  "æ": 162,
  "ç": 163,
  "è": 164,
  "é": 165,
  "ê": 166,
  "ë": 167,
  "ì": 168,
  "í": 169,
  "î": 170,
  "ï": 171,
  "ï¼": 22381,
  "ð": 172,
  "ñ": 173,
  "ò": 174,
  "ó": 175,
  "ô": 176,
  "õ": 177,
  "ö": 178,
  "÷": 179,
  "ø": 180,
  "ù": 181,
  "ú": 182,
  "û": 183,
  "ü": 184,
  "ý": 185,
  "þ": 186,
  "ÿ": 187,
  "Ā": 188,
  "ā": 189,
  "Ă": 190,
  "ă": 191,
  "Ą": 192,
  "ą": 193,
  "Ć": 194,
  "ć": 195,
  "Ĉ": 196,
  "ĉ": 197,
  "Ċ": 198,
  "ċ": 199,
  "Č": 200,
  "č": 201,
  "Ď": 202,
  "ď": 203,
  "Đ": 204,
  "đ": 205,
  "Ē": 206,
  "ē": 207,
  "Ĕ": 208,
  "ĕ": 209,
  "Ė": 210,
  "ė": 211,
  "Ę": 212,
  "ę": 213,
  "Ě": 214,
  "ě": 215,
  "Ĝ": 216,
  "ĝ": 217,
  "Ğ": 218,
  "ğ": 219,
  "Ġ": 220,
  "Ġ\"": 1513,
  "Ġ#": 23251,
  "Ġ$": 8569,
  "Ġ%": 4085,
  "Ġ%)": 9797,
  "Ġ%),": 17757,
  "Ġ%).": 18149,
  "Ġ%,": 14287,
  "Ġ%.": 19760,
  "Ġ&": 7171,
  "Ġ'": 2665,
  "Ġ(": 303,
  "Ġ(\"": 12315,
  "Ġ($": 25639,
  "Ġ(%": 20992,
  "Ġ('": 19821,
  "Ġ((": 16232,
  "Ġ(+": 12620,
  "Ġ(+)": 21948,
  "Ġ(+)-": 17337,
  "Ġ(+/-": 11036,
  "Ġ(-": 5260,
  "Ġ(-)": 24102,
  "Ġ(-)-": 15895,
  "Ġ(<": 7232,
  "Ġ(=": 20926,
  "Ġ(>": 6662,
  "Ġ([": 12003,
  "Ġ(~": 27716,
  "Ġ(Â±": 16579,
  "Ġ(âĪ¼": 22247,
  "Ġ(âī": 12071,
  "Ġ(âī¤": 24331,
  "Ġ(âī¥": 15551,
  "Ġ)": 10788,
  "Ġ),": 26077,
  "Ġ).": 24864,
  "Ġ*": 18081,
  "Ġ+": 961,
  "Ġ+/-": 1091,
  "Ġ,": 9616,
  "Ġ-": 1384,
  "Ġ--": 12992,
  "Ġ-->": 19261,
  "Ġ.": 1969,
  "Ġ/": 11978,
  "Ġ0": 491,
  "Ġ000": 11866,
  "Ġ1": 358,
  "Ġ10": 847,
  "Ġ100": 1855,
  "Ġ1000": 8027,
  "Ġ101": 13310,
  "Ġ102": 13021,
  "Ġ103": 13570,
  "Ġ104": 13298,
  "Ġ105": 11894,
  "Ġ106": 13483,
  "Ġ107": 14970,
  "Ġ108": 14261,
  "Ġ109": 15001,
  "Ġ11": 1579,
  "Ġ110": 10440,
  "Ġ111": 14328,
  "Ġ112": 14203,
  "Ġ113": 16530,
  "Ġ114": 16408,
  "Ġ115": 14890,
  "Ġ116": 16196,
  "Ġ117": 17015,
  "Ġ118": 16172,
  "Ġ119": 17970,
  "Ġ12": 1090,
  "Ġ120": 6336,
  "Ġ1200": 25051,
  "Ġ121": 17411,
  "Ġ122": 17702,
  "Ġ123": 14553,
  "Ġ124": 17734,
  "Ġ125": 7888,
  "Ġ126": 16871,
  "Ġ127": 18312,
  "Ġ128": 16170,
  "Ġ129": 16745,
  "Ġ13": 1664,
  "Ġ130": 12039,
  "Ġ131": 14283,
  "Ġ132": 18700,
  "Ġ133": 17788,
  "Ġ134": 19301,
  "Ġ135": 15983,
  "Ġ136": 19435,
  "Ġ137": 17222,
  "Ġ138": 19517,
  "Ġ139": 20875,
  "Ġ14": 1574,
  "Ġ140": 11617,
  "Ġ141": 21045,
  "Ġ142": 20598,
  "Ġ143": 20931,
  "Ġ144": 18415,
  "Ġ145": 18189,
  "Ġ146": 21274,
  "Ġ147": 21212,
  "Ġ148": 20970,
  "Ġ149": 22484,
  "Ġ15": 1451,
  "Ġ150": 6830,
  "Ġ1500": 21209,
  "Ġ151": 22120,
  "Ġ152": 21494,
  "Ġ153": 20090,
  "Ġ154": 21659,
  "Ġ155": 20913,
  "Ġ156": 21456,
  "Ġ157": 22205,
  "Ġ158": 22479,
  "Ġ159": 23649,
  "Ġ16": 1719,
  "Ġ160": 12425,
  "Ġ161": 24278,
  "Ġ162": 23202,
  "Ġ163": 24067,
  "Ġ164": 23392,
  "Ġ165": 20809,
  "Ġ166": 23788,
  "Ġ167": 24033,
  "Ġ168": 20129,
  "Ġ169": 24471,
  "Ġ17": 1996,
  "Ġ170": 16584,
  "Ġ171": 25037,
  "Ġ172": 24361,
  "Ġ173": 25506,
  "Ġ174": 24223,
  "Ġ175": 20200,
  "Ġ176": 24390,
  "Ġ177": 23881,
  "Ġ178": 25129,
  "Ġ179": 26048,
  "Ġ18": 1684,
  "Ġ180": 9744,
  "Ġ181": 26162,
  "Ġ182": 23709,
  "Ġ183": 26047,
  "Ġ184": 26073,
  "Ġ185": 23312,
  "Ġ186": 25845,
  "Ġ187": 26245,
  "Ġ188": 24162,
  "Ġ189": 27100,
  "Ġ19": 1038,
  "Ġ190": 20136,
  "Ġ191": 28154,
  "Ġ192": 22004,
  "Ġ193": 25829,
  "Ġ194": 27573,
  "Ġ195": 25182,
  "Ġ1950": 24537,
  "Ġ196": 26521,
  "Ġ1960": 20818,
  "Ġ1966": 28621,
  "Ġ197": 27641,
  "Ġ1970": 15705,
  "Ġ1971": 28102,
  "Ġ1972": 26544,
  "Ġ1973": 23970,
  "Ġ1974": 23761,
  "Ġ1975": 20397,
  "Ġ1976": 21958,
  "Ġ1977": 21736,
  "Ġ1978": 20546,
  "Ġ1979": 19605,
  "Ġ198": 3575,
  "Ġ1980": 11123,
  "Ġ1981": 17697,
  "Ġ1982": 17003,
  "Ġ1983": 16724,
  "Ġ1984": 15868,
  "Ġ1985": 13582,
  "Ġ1986": 13915,
  "Ġ1987": 13367,
  "Ġ1988": 12545,
  "Ġ1989": 12652,
  "Ġ199": 2314,
  "Ġ1990": 8573,
  "Ġ1991": 11465,
  "Ġ1992": 10987,
  "Ġ1993": 11001,
  "Ġ1994": 10475,
  "Ġ1995": 9584,
  "Ġ1996": 9683,
  "Ġ1997": 9331,
  "Ġ1998": 9061,
  "Ġ1999": 8810,
  "Ġ2": 402,
  "Ġ20": 1366,
  "Ġ200": 1380,
  "Ġ2000": 5913,
  "Ġ2001": 8216,
  "Ġ2002": 8188,
  "Ġ2003": 8042,
  "Ġ2004": 7801,
  "Ġ2005": 7310,
  "Ġ2006": 7501,
  "Ġ2007": 7459,
  "Ġ2008": 7341,
  "Ġ2009": 7102,
  "Ġ201": 1809,
  "Ġ2010": 6751,
  "Ġ2011": 7483,
  "Ġ2012": 7490,
  "Ġ2013": 7787,
  "Ġ2014": 8058,
  "Ġ2015": 8150,
  "Ġ2016": 8336,
  "Ġ2017": 9749,
  "Ġ2018": 13153,
  "Ġ2019": 19426,
  "Ġ202": 26325,
  "Ġ203": 26304,
  "Ġ204": 26231,
  "Ġ205": 20387,
  "Ġ206": 27333,
  "Ġ207": 27732,
  "Ġ208": 26823,
  "Ġ209": 27879,
  "Ġ21": 2692,
  "Ġ210": 17857,
  "Ġ211": 28120,
  "Ġ212": 26932,
  "Ġ213": 28632,
  "Ġ214": 28525,
  "Ġ215": 26753,
  "Ġ216": 24874,
  "Ġ217": 28782,
  "Ġ218": 27895,
  "Ġ22": 2765,
  "Ġ220": 18092,
  "Ġ222": 25820,
  "Ġ223": 28864,
  "Ġ224": 27590,
  "Ġ225": 22047,
  "Ġ226": 27659,
  "Ġ23": 2864,
  "Ġ230": 20660,
  "Ġ235": 27940,
  "Ġ24": 1608,
  "Ġ240": 15131,
  "Ġ25": 1970,
  "Ġ250": 5530,
  "Ġ254": 27164,
  "Ġ256": 24358,
  "Ġ26": 3079,
  "Ġ260": 22341,
  "Ġ264": 22090,
  "Ġ27": 3326,
  "Ġ270": 21873,
  "Ġ275": 28485,
  "Ġ28": 2876,
  "Ġ280": 21101,
  "Ġ29": 3581,
  "Ġ290": 27601,
  "Ġ293": 20820,
  "Ġ298": 27401,
  "Ġ3": 476,
  "Ġ30": 1532,
  "Ġ300": 6892,
  "Ġ3000": 24383,
  "Ġ31": 3831,
  "Ġ32": 3769,
  "Ġ320": 21749,
  "Ġ33": 4164,
  "Ġ330": 26758,
  "Ġ34": 4168,
  "Ġ340": 27915,
  "Ġ344": 26087,
  "Ġ35": 3152,
  "Ġ350": 16907,
  "Ġ36": 3499,
  "Ġ360": 19375,
  "Ġ37": 3657,
  "Ġ38": 4137,
  "Ġ39": 4769,
  "Ġ4": 562,
  "Ġ40": 2290,
  "Ġ400": 7366,
  "Ġ4000": 26460,
  "Ġ41": 5290,
  "Ġ42": 4601,
  "Ġ43": 5224,
  "Ġ44": 5263,
  "Ġ45": 3436,
  "Ġ450": 19079,
  "Ġ46": 5278,
  "Ġ47": 5666,
  "Ġ48": 3198,
  "Ġ49": 6113,
  "Ġ5": 572,
  "Ġ50": 1819,
  "Ġ500": 6670,
  "Ġ5000": 24187,
  "Ġ51": 5888,
  "Ġ52": 5512,
  "Ġ53": 6043,
  "Ġ54": 5886,
  "Ġ55": 4807,
  "Ġ550": 27987,
  "Ġ56": 5699,
  "Ġ57": 6238,
  "Ġ58": 6077,
  "Ġ59": 6579,
  "Ġ6": 661,
  "Ġ60": 2414,
  "Ġ600": 11329,
  "Ġ61": 6611,
  "Ġ62": 6301,
  "Ġ63": 6393,
  "Ġ64": 5916,
  "Ġ65": 4452,
  "Ġ66": 6454,
  "Ġ67": 6411,
  "Ġ68": 6555,
  "Ġ69": 7163,
  "Ġ7": 782,
  "Ġ70": 3460,
  "Ġ700": 19007,
  "Ġ71": 6982,
  "Ġ72": 4804,
  "Ġ73": 7195,
  "Ġ74": 7320,
  "Ġ75": 4147,
  "Ġ750": 22645,
  "Ġ76": 7196,
  "Ġ77": 7282,
  "Ġ78": 7058,
  "Ġ79": 7785,
  "Ġ8": 846,
  "Ġ80": 3330,
  "Ġ800": 13918,
  "Ġ81": 7632,
  "Ġ82": 7381,
  "Ġ83": 7288,
  "Ġ84": 7343,
  "Ġ85": 5836,
  "Ġ86": 7160,
  "Ġ87": 7654,
  "Ġ88": 7346,
  "Ġ89": 7947,
  "Ġ9": 779,
  "Ġ90": 3143,
  "Ġ900": 21628,
  "Ġ91": 7876,
  "Ġ92": 7305,
  "Ġ93": 7636,
  "Ġ94": 7608,
  "Ġ95": 1787,
  "Ġ96": 6158,
  "Ġ97": 7567,
  "Ġ98": 7378,
  "Ġ99": 6068,
  "Ġ:": 9484,
  "Ġ<": 1008,
  "Ġ<.": 14691,
  "Ġ=": 627,
  "Ġ=.": 14954,
  "Ġ>": 2144,
  "Ġ>/=": 26282,
  "ĠA": 359,
  "ĠAA": 6960,
  "ĠAAA": 17825,
  "ĠAAV": 26374,
  "ĠAB": 7469,
  "ĠABA": 21155,
  "ĠABC": 16400,
  "ĠABI": 26915,
  "ĠABO": 22954,
  "ĠABP": 24580,
  "ĠAC": 10355,
  "ĠACA": 28700,
  "ĠACC": 18346,
  "ĠACD": 27367,
  "ĠACE": 9762,
  "ĠACL": 13888,
  "ĠACP": 26389,
  "ĠACR": 24512,
  "ĠACS": 14988,
  "ĠACT": 8664,
  "ĠACTH": 10107,
  "ĠACh": 10291,
  "ĠAChE": 17255,
  "ĠAD": 2910,
  "ĠADA": 14395,
  "ĠADC": 17436,
  "ĠADH": 23494,
  "ĠADHD": 10372,
  "ĠADL": 24800,
  "ĠADM": 28559,
  "ĠADP": 10792,
  "ĠADR": 25509,
  "ĠAE": 15698,
  "ĠAEs": 24474,
  "ĠAF": 5236,
  "ĠAFB": 24629,
  "ĠAFM": 21435,
  "ĠAFP": 18191,
  "ĠAG": 13974,
  "ĠAGE": 19323,
  "ĠAH": 16270,
  "ĠAI": 5693,
  "ĠAIDS": 8303,
  "ĠAII": 26413,
  "ĠAIS": 24254,
  "ĠAK": 9784,
  "ĠAKI": 18060,
  "ĠAKT": 21289,
  "ĠAL": 9598,
  "ĠALA": 22568,
  "ĠALDH": 26575,
  "ĠALK": 23506,
  "ĠALL": 14514,
  "ĠALP": 19050,
  "ĠALS": 14021,
  "ĠALT": 15779,
  "ĠAM": 9734,
  "ĠAMD": 19427,
  "ĠAMI": 14172,
  "ĠAML": 11452,
  "ĠAMP": 6963,
  "ĠAMPA": 21546,
  "ĠAMPK": 18544,
  "ĠAN": 9115,
  "ĠANA": 26887,
  "ĠAND": 17170,
  "ĠANF": 25576,
  "ĠANG": 20571,
  "ĠANOVA": 14608,
  "ĠANP": 17038,
  "ĠAO": 18625,
  "ĠAP": 6178,
  "ĠAPA": 18069,
  "ĠAPC": 16055,
  "ĠAPD": 26999,
  "ĠAPO": 18386,
  "ĠAPOE": 26031,
  "ĠAPP": 17672,
  "ĠAPS": 23449,
  "ĠAQ": 15941,
  "ĠAQP": 19379,
  "ĠAR": 5455,
  "ĠARDS": 22876,
  "ĠARF": 22349,
  "ĠART": 14745,
  "ĠAS": 6460,
  "ĠASA": 15194,
  "ĠASC": 25757,
  "ĠASD": 13139,
  "ĠAST": 19147,
  "ĠAT": 3560,
  "ĠATCC": 20860,
  "ĠATG": 27173,
  "ĠATM": 27293,
  "ĠATP": 4023,
  "ĠATPase": 11603,
  "ĠATRA": 28456,
  "ĠAU": 19562,
  "ĠAUC": 10978,
  "ĠAV": 7082,
  "ĠAVP": 16854,
  "ĠAZ": 16671,
  "ĠAb": 5430,
  "ĠAbdominal": 24251,
  "ĠAbeta": 16246,
  "ĠAbnormal": 18840,
  "ĠAbor": 22872,
  "ĠAboriginal": 25313,
  "ĠAbout": 13768,
  "ĠAbs": 13810,
  "ĠAc": 2152,
  "ĠAcad": 18404,
  "ĠAcademic": 22780,
  "ĠAcademy": 22453,
  "ĠAcanth": 27959,
  "ĠAcc": 5005,
  "ĠAccess": 25249,
  "ĠAccording": 6304,
  "ĠAccordingly": 13664,
  "ĠAccuracy": 28467,
  "ĠAccurate": 27903,
  "ĠAch": 15457,
  "ĠAchilles": 22563,
  "ĠAcid": 15982,
  "ĠAcinetobacter": 22588,
  "ĠAcross": 23960,
  "ĠAct": 14168,
  "ĠActin": 19540,
  "ĠAction": 27763,
  "ĠActivation": 15935,
  "ĠActive": 19449,
  "ĠActivities": 26336,
  "ĠActivity": 13235,
  "ĠAcute": 10101,
  "ĠAd": 2103,
  "ĠAdap": 26644,
  "ĠAdd": 26693,
  "ĠAddition": 13520,
  "ĠAdditional": 10290,
  "ĠAdditionally": 5900,
  "ĠAden": 19233,
  "ĠAdherence": 28732,
  "ĠAdi": 26657,
  "ĠAdj": 17198,
  "ĠAdministration": 9856,
  "ĠAdoles": 17030,
  "ĠAdolescent": 28195,
  "ĠAdolescents": 24096,
  "ĠAdult": 13697,
  "ĠAdults": 20151,
  "ĠAdv": 14286,
  "ĠAdvanced": 20894,
  "ĠAdvances": 27771,
  "ĠAdverse": 17354,
  "ĠAe": 26379,
  "ĠAedes": 23470,
  "ĠAer": 20142,
  "ĠAf": 4671,
  "ĠAff": 15740,
  "ĠAffairs": 27672,
  "ĠAffec": 23538,
  "ĠAfric": 4918,
  "ĠAfrica": 9119,
  "ĠAfrican": 6900,
  "ĠAfter": 2157,
  "ĠAg": 4181,
  "ĠAgNPs": 28704,
  "ĠAgain": 21739,
  "ĠAgainst": 27541,
  "ĠAge": 9831,
  "ĠAgency": 20871,
  "ĠAging": 26790,
  "ĠAh": 21824,
  "ĠAim": 28306,
  "ĠAir": 16798,
  "ĠAkt": 11798,
  "ĠAl": 993,
  "ĠAla": 19667,
  "ĠAlcohol": 20661,
  "ĠAll": 1847,
  "ĠAlmost": 18451,
  "ĠAlong": 28727,
  "ĠAlpha": 27014,
  "ĠAlso": 6736,
  "ĠAlterations": 28238,
  "ĠAltern": 14238,
  "ĠAlternative": 27031,
  "ĠAlternatively": 24708,
  "ĠAlthough": 2256,
  "ĠAltogether": 19450,
  "ĠAlzheimer": 6450,
  "ĠAm": 1954,
  "ĠAma": 25378,
  "ĠAmazon": 28222,
  "ĠAmb": 22712,
  "ĠAmeric": 3801,
  "ĠAmerica": 10869,
  "ĠAmerican": 4989,
  "ĠAmericans": 14028,
  "ĠAmino": 26601,
  "ĠAmong": 3500,
  "ĠAmpl": 23783,
  "ĠAn": 1374,
  "ĠAna": 22433,
  "ĠAnal": 4169,
  "ĠAnalyses": 15240,
  "ĠAnalysis": 5306,
  "ĠAnat": 20899,
  "ĠAnd": 12524,
  "ĠAng": 10127,
  "ĠAngel": 24438,
  "ĠAngi": 15188,
  "ĠAnimal": 20904,
  "ĠAnimals": 15096,
  "ĠAnn": 20333,
  "ĠAnnual": 26324,
  "ĠAnopheles": 27065,
  "ĠAnother": 12864,
  "ĠAnt": 19590,
  "ĠAnterior": 25901,
  "ĠAnth": 23285,
  "ĠAnti": 6480,
  "ĠAntibodies": 22285,
  "ĠAntibody": 24513,
  "ĠAntic": 27239,
  "ĠAnxiety": 15896,
  "ĠAny": 22478,
  "ĠAortic": 23324,
  "ĠAp": 3341,
  "ĠApart": 21774,
  "ĠApgar": 27240,
  "ĠApo": 16964,
  "ĠApoE": 28439,
  "ĠApoptosis": 22901,
  "ĠApparent": 27010,
  "ĠApplication": 14285,
  "ĠApplications": 27923,
  "ĠAppro": 9193,
  "ĠApproach": 23617,
  "ĠAppropriate": 26775,
  "ĠApproximately": 14043,
  "ĠApril": 9337,
  "ĠAr": 3565,
  "ĠAra": 24951,
  "ĠArab": 8500,
  "ĠArabia": 25645,
  "ĠArabidopsis": 11094,
  "ĠArc": 20720,
  "ĠArch": 22014,
  "ĠAre": 25947,
  "ĠArea": 20790,
  "ĠAreas": 24518,
  "ĠArg": 11484,
  "ĠArgent": 19372,
  "ĠArgentina": 22594,
  "ĠArter": 17365,
  "ĠArterial": 21202,
  "ĠArtery": 28774,
  "ĠArth": 16461,
  "ĠArtic": 23801,
  "ĠAs": 1645,
  "ĠAsc": 21236,
  "ĠAsia": 13412,
  "ĠAsian": 9938,
  "ĠAsians": 24387,
  "ĠAsn": 23702,
  "ĠAsp": 15898,
  "ĠAspergillus": 12734,
  "ĠAss": 5475,
  "ĠAssay": 28535,
  "ĠAssess": 28856,
  "ĠAssessment": 8518,
  "ĠAssociated": 17854,
  "ĠAssociation": 8650,
  "ĠAssociations": 22485,
  "ĠAsthma": 26035,
  "ĠAt": 2040,
  "ĠAtl": 16673,
  "ĠAtlantic": 18427,
  "ĠAtrial": 28318,
  "ĠAttention": 23877,
  "ĠAu": 8393,
  "ĠAug": 9426,
  "ĠAugust": 10391,
  "ĠAustr": 5472,
  "ĠAustral": 8205,
  "ĠAustralia": 8824,
  "ĠAustralian": 10069,
  "ĠAut": 10237,
  "ĠAuthors": 22921,
  "ĠAuto": 26142,
  "ĠAv": 23147,
  "ĠAvail": 25498,
  "ĠAvailable": 28871,
  "ĠAverage": 14194,
  "ĠAw": 25764,
  "ĠAx": 18207,
  "ĠAz": 19612,
  "ĠAÎ²": 13826,
  "ĠB": 481,
  "ĠBA": 10020,
  "ĠBAC": 25062,
  "ĠBAL": 9053,
  "ĠBALB": 12166,
  "ĠBAT": 27552,
  "ĠBB": 19832,
  "ĠBBB": 20579,
  "ĠBC": 11609,
  "ĠBCC": 28511,
  "ĠBCG": 15511,
  "ĠBCL": 20161,
  "ĠBCR": 18228,
  "ĠBCS": 26514,
  "ĠBD": 8064,
  "ĠBDNF": 14170,
  "ĠBE": 17833,
  "ĠBF": 17483,
  "ĠBG": 24587,
  "ĠBH": 18507,
  "ĠBI": 17241,
  "ĠBK": 16494,
  "ĠBL": 14222,
  "ĠBM": 10562,
  "ĠBMD": 9714,
  "ĠBMI": 5831,
  "ĠBMP": 11888,
  "ĠBMS": 26270,
  "ĠBMSCs": 28528,
  "ĠBMT": 20874,
  "ĠBN": 18626,
  "ĠBNP": 18335,
  "ĠBO": 20597,
  "ĠBP": 5681,
  "ĠBPA": 18551,
  "ĠBPD": 17940,
  "ĠBPH": 21979,
  "ĠBR": 9300,
  "ĠBRAF": 19882,
  "ĠBRCA": 13348,
  "ĠBS": 16224,
  "ĠBSA": 15536,
  "ĠBT": 13224,
  "ĠBV": 19932,
  "ĠBW": 12969,
  "ĠBZ": 28152,
  "ĠBa": 12052,
  "ĠBab": 23657,
  "ĠBac": 26748,
  "ĠBacillus": 10078,
  "ĠBacter": 14785,
  "ĠBacterial": 21619,
  "ĠBacteroides": 27696,
  "ĠBal": 13626,
  "ĠBanglades": 24173,
  "ĠBangladesh": 26972,
  "ĠBank": 26473,
  "ĠBar": 15910,
  "ĠBarrett": 22161,
  "ĠBart": 22970,
  "ĠBas": 10888,
  "ĠBasal": 22493,
  "ĠBased": 4592,
  "ĠBaseline": 14236,
  "ĠBasic": 24940,
  "ĠBat": 26562,
  "ĠBax": 14566,
  "ĠBay": 10100,
  "ĠBayesian": 14703,
  "ĠBcl": 9254,
  "ĠBe": 5072,
  "ĠBec": 4558,
  "ĠBecause": 4931,
  "ĠBeck": 22932,
  "ĠBefore": 12486,
  "ĠBeh": 23674,
  "ĠBehavi": 11722,
  "ĠBehavior": 19806,
  "ĠBehavioral": 21944,
  "ĠBeijing": 21852,
  "ĠBeing": 28175,
  "ĠBel": 12925,
  "ĠBelgium": 26839,
  "ĠBer": 18571,
  "ĠBesides": 11546,
  "ĠBest": 28050,
  "ĠBet": 7007,
  "ĠBeta": 24630,
  "ĠBetter": 25487,
  "ĠBetween": 8228,
  "ĠBi": 4574,
  "ĠBif": 26865,
  "ĠBilateral": 23509,
  "ĠBinding": 16255,
  "ĠBio": 12800,
  "ĠBiochemical": 21506,
  "ĠBiol": 18458,
  "ĠBiological": 22183,
  "ĠBiom": 17098,
  "ĠBiopsy": 27391,
  "ĠBirth": 26412,
  "ĠBis": 28213,
  "ĠBl": 4735,
  "ĠBlack": 14141,
  "ĠBland": 26523,
  "ĠBle": 25818,
  "ĠBlock": 25324,
  "ĠBlood": 7218,
  "ĠBlue": 20403,
  "ĠBo": 11246,
  "ĠBoard": 21842,
  "ĠBody": 13698,
  "ĠBol": 25416,
  "ĠBon": 24802,
  "ĠBond": 24041,
  "ĠBone": 12367,
  "ĠBor": 19150,
  "ĠBorrelia": 27667,
  "ĠBoth": 3004,
  "ĠBr": 6334,
  "ĠBrain": 13353,
  "ĠBrazil": 6947,
  "ĠBrazilian": 12943,
  "ĠBrdU": 22874,
  "ĠBre": 25470,
  "ĠBreast": 15589,
  "ĠBrief": 23530,
  "ĠBrit": 27331,
  "ĠBritish": 15468,
  "ĠBro": 27725,
  "ĠBrown": 26799,
  "ĠBrucella": 27678,
  "ĠBt": 27142,
  "ĠBu": 20274,
  "ĠBul": 24407,
  "ĠBur": 20141,
  "ĠBurk": 22038,
  "ĠBut": 10229,
  "ĠBy": 3660,
  "ĠC": 365,
  "ĠCA": 3607,
  "ĠCAB": 14833,
  "ĠCABG": 16067,
  "ĠCAC": 26385,
  "ĠCAD": 9464,
  "ĠCAG": 26332,
  "ĠCAL": 25325,
  "ĠCAM": 17155,
  "ĠCAP": 12213,
  "ĠCAPD": 27105,
  "ĠCAR": 24029,
  "ĠCAS": 16669,
  "ĠCAT": 15648,
  "ĠCB": 6191,
  "ĠCBA": 26819,
  "ĠCBCT": 25779,
  "ĠCBD": 24449,
  "ĠCBF": 16202,
  "ĠCBT": 23001,
  "ĠCC": 7230,
  "ĠCCA": 20261,
  "ĠCCD": 27913,
  "ĠCCK": 13500,
  "ĠCCL": 16718,
  "ĠCCN": 28400,
  "ĠCCR": 13120,
  "ĠCCS": 24661,
  "ĠCCT": 26286,
  "ĠCCl": 21336,
  "ĠCD": 1548,
  "ĠCDC": 19719,
  "ĠCDDP": 23380,
  "ĠCDH": 25637,
  "ĠCDI": 27595,
  "ĠCDK": 16099,
  "ĠCE": 8481,
  "ĠCEA": 12987,
  "ĠCF": 5905,
  "ĠCFT": 20027,
  "ĠCFTR": 22156,
  "ĠCFU": 12432,
  "ĠCG": 8742,
  "ĠCGRP": 17895,
  "ĠCH": 4480,
  "ĠCHA": 25530,
  "ĠCHD": 11751,
  "ĠCHF": 15765,
  "ĠCHO": 15892,
  "ĠCI": 1688,
  "ĠCIN": 17515,
  "ĠCINAHL": 24083,
  "ĠCK": 7181,
  "ĠCKD": 12006,
  "ĠCL": 8611,
  "ĠCLA": 22855,
  "ĠCLL": 19423,
  "ĠCM": 9819,
  "ĠCML": 17187,
  "ĠCMR": 23646,
  "ĠCMT": 28299,
  "ĠCMV": 10775,
  "ĠCN": 10739,
  "ĠCNS": 7843,
  "ĠCNT": 22694,
  "ĠCNV": 24684,
  "ĠCO": 2476,
  "ĠCOD": 19058,
  "ĠCOL": 23376,
  "ĠCON": 16282,
  "ĠCONCLUS": 25483,
  "ĠCOPD": 9066,
  "ĠCOS": 18945,
  "ĠCOX": 9058,
  "ĠCP": 5696,
  "ĠCPA": 24865,
  "ĠCPAP": 21904,
  "ĠCPB": 18472,
  "ĠCPP": 21845,
  "ĠCPR": 18217,
  "ĠCPT": 18786,
  "ĠCR": 4151,
  "ĠCRC": 11977,
  "ĠCREB": 23262,
  "ĠCRF": 13391,
  "ĠCRH": 22073,
  "ĠCRI": 21346,
  "ĠCRP": 10059,
  "ĠCRS": 22169,
  "ĠCRT": 15942,
  "ĠCS": 4094,
  "ĠCSA": 18893,
  "ĠCSF": 7139,
  "ĠCSP": 28711,
  "ĠCT": 2326,
  "ĠCTA": 21630,
  "ĠCTL": 14718,
  "ĠCTLA": 27048,
  "ĠCTX": 23917,
  "ĠCU": 23923,
  "ĠCV": 6012,
  "ĠCVD": 11993,
  "ĠCW": 26250,
  "ĠCX": 9243,
  "ĠCXCL": 17877,
  "ĠCXCR": 15691,
  "ĠCY": 17643,
  "ĠCYP": 5506,
  "ĠCa": 2028,
  "ĠCaCl": 27008,
  "ĠCaM": 25110,
  "ĠCaco": 19218,
  "ĠCaenorhabditis": 25198,
  "ĠCal": 7919,
  "ĠCalc": 12843,
  "ĠCalcium": 21962,
  "ĠCalifornia": 12688,
  "ĠCam": 24128,
  "ĠCamp": 15230,
  "ĠCampylobacter": 18925,
  "ĠCan": 6489,
  "ĠCanada": 10273,
  "ĠCanadian": 12517,
  "ĠCancer": 6406,
  "ĠCandid": 9361,
  "ĠCandida": 9961,
  "ĠCap": 16573,
  "ĠCar": 8614,
  "ĠCarb": 19098,
  "ĠCarbon": 23854,
  "ĠCarcinoma": 25893,
  "ĠCardi": 8507,
  "ĠCardiac": 13643,
  "ĠCardiovascular": 19666,
  "ĠCare": 7073,
  "ĠCareful": 26333,
  "ĠCaribbean": 28844,
  "ĠCarlo": 12926,
  "ĠCarol": 23294,
  "ĠCarolina": 23955,
  "ĠCas": 16238,
  "ĠCase": 9684,
  "ĠCases": 16631,
  "ĠCaspase": 28643,
  "ĠCat": 18308,
  "ĠCatal": 19506,
  "ĠCauc": 11043,
  "ĠCaucasian": 14120,
  "ĠCaucasians": 22272,
  "ĠCd": 5490,
  "ĠCdc": 22100,
  "ĠCe": 14676,
  "ĠCell": 5442,
  "ĠCells": 9924,
  "ĠCellular": 22922,
  "ĠCent": 10967,
  "ĠCenter": 9009,
  "ĠCenters": 20039,
  "ĠCentral": 10729,
  "ĠCentre": 17099,
  "ĠCer": 17766,
  "ĠCerebral": 21709,
  "ĠCertain": 24386,
  "ĠCervical": 25571,
  "ĠCh": 1477,
  "ĠCha": 26760,
  "ĠChagas": 26506,
  "ĠChange": 23591,
  "ĠChanges": 9585,
  "ĠChar": 21218,
  "ĠCharacter": 12793,
  "ĠCharacteristics": 25023,
  "ĠCharacterization": 21307,
  "ĠChe": 15356,
  "ĠCheck": 21747,
[...]
